<unk>	0
<s>	0
</s>	0
▁t	-0
he	-1
▁a	-2
in	-3
er	-4
▁the	-5
on	-6
re	-7
it	-8
▁s	-9
▁,	-10
ou	-11
▁w	-12
at	-13
ed	-14
nd	-15
or	-16
▁c	-17
en	-18
▁o	-19
is	-20
▁.	-21
▁f	-22
es	-23
▁S	-24
ar	-25
▁b	-26
an	-27
al	-28
ing	-29
▁in	-30
ce	-31
▁of	-32
▁p	-33
as	-34
▁and	-35
▁to	-36
ex	-37
▁W	-38
▁m	-39
le	-40
▁d	-41
ion	-42
ro	-43
ic	-44
our	-45
▁h	-46
ext	-47
ik	-48
▁#	-49
ource	-50
▁##	-51
▁T	-52
▁=	-53
▁Source	-54
▁Wik	-55
itext	-56
▁Wikitext	-57
▁re	-58
ent	-59
il	-60
▁th	-61
▁A	-62
st	-63
▁"	-64
el	-65
▁'	-66
ct	-67
▁l	-68
▁1	-69
▁n	-70
am	-71
id	-72
om	-73
et	-74
▁I	-75
▁C	-76
ad	-77
▁@	-78
ol	-79
im	-80
▁M	-81
▁on	-82
ow	-83
▁g	-84
▁was	-85
ot	-86
ig	-87
ly	-88
▁B	-89
iv	-90
▁The	-91
ur	-92
▁for	-93
ay	-94
us	-95
▁e	-96
ut	-97
▁be	-98
ac	-99
ir	-100
ver	-101
▁H	-102
ith	-103
▁@-	-104
▁@-@	-105
▁as	-106
▁st	-107
ter	-108
ation	-109
▁2	-110
▁P	-111
▁is	-112
▁that	-113
▁with	-114
▁he	-115
▁(	-116
ch	-117
un	-118
em	-119
ra	-120
▁D	-121
▁R	-122
th	-123
ul	-124
▁wh	-125
ag	-126
▁it	-127
▁F	-128
▁al	-129
▁con	-130
est	-131
av	-132
ers	-133
od	-134
▁an	-135
00	-136
um	-137
▁by	-138
ew	-139
os	-140
▁L	-141
▁N	-142
▁at	-143
▁G	-144
▁)	-145
rom	-146
and	-147
ist	-148
▁v	-149
her	-150
pe	-151
▁se	-152
if	-153
ate	-154
ain	-155
▁19	-156
▁E	-157
ab	-158
out	-159
▁J	-160
ri	-161
▁de	-162
igh	-163
▁<	-164
▁pro	-165
▁r	-166
▁from	-167
▁O	-168
ld	-169
▁com	-170
ill	-171
res	-172
ame	-173
op	-174
▁y	-175
se	-176
ack	-177
ore	-178
▁his	-179
ort	-180
art	-181
oc	-182
qu	-183
▁su	-184
pp	-185
pt	-186
▁In	-187
ere	-188
ak	-189
all	-190
ies	-191
ant	-192
ber	-193
ich	-194
ard	-195
▁or	-196
▁St	-197
ess	-198
▁sh	-199
▁ch	-200
ity	-201
ight	-202
rou	-203
ction	-204
="	-205
ud	-206
▁were	-207
ong	-208
ment	-209
ated	-210
▁pl	-211
▁U	-212
ive	-213
gh	-214
▁ex	-215
ge	-216
▁K	-217
▁not	-218
nt	-219
pl	-220
▁k	-221
ine	-222
▁are	-223
ave	-224
ue	-225
ass	-226
age	-227
ord	-228
red	-229
▁le	-230
▁which	-231
ast	-232
ov	-233
ip	-234
▁cl	-235
▁us	-236
ust	-237
▁had	-238
''	-239
ap	-240
ial	-241
low	-242
▁u	-243
▁'''	-244
▁but	-245
);	-246
▁this	-247
ost	-248
▁3	-249
cl	-250
ould	-251
ell	-252
ub	-253
ect	-254
ary	-255
ian	-256
ear	-257
og	-258
rit	-259
ide	-260
ia	-261
ical	-262
orm	-263
▁cont	-264
▁whe	-265
▁have	-266
▁int	-267
per	-268
▁V	-269
iew	-270
ork	-271
ure	-272
cc	-273
ff	-274
ry	-275
iz	-276
ther	-277
▁un	-278
so	-279
ok	-280
irst	-281
▁ad	-282
ition	-283
ign	-284
ile	-285
▁Ch	-286
ont	-287
fter	-288
ie	-289
▁:	-290
able	-291
▁ar	-292
▁}	-293
ome	-294
ult	-295
▁200	-296
▁20	-297
ous	-298
ind	-299
ran	-300
▁im	-301
▁{	-302
ish	-303
▁ab	-304
▁Th	-305
▁j	-306
ime	-307
ire	-308
▁first	-309
▁res	-310
wo	-311
int	-312
ru	-313
▁sc	-314
▁4	-315
▁its	-316
▁comp	-317
ond	-318
▁/	-319
▁5	-320
▁;	-321
▁also	-322
ll	-323
--	-324
act	-325
▁one	-326
du	-327
▁their	-328
ater	-329
are	-330
▁her	-331
▁He	-332
ound	-333
▁–	-334
ally	-335
▁0	-336
own	-337
ib	-338
hed	-339
▁per	-340
▁ro	-341
end	-342
ory	-343
ick	-344
ach	-345
mer	-346
▁you	-347
ice	-348
▁dis	-349
▁can	-350
▁has	-351
ase	-352
ree	-353
▁An	-354
urn	-355
▁It	-356
ph	-357
▁two	-358
▁new	-359
▁who	-360
▁rec	-361
▁Y	-362
ey	-363
ence	-364
ough	-365
sion	-366
▁out	-367
ance	-368
ace	-369
▁bec	-370
▁en	-371
▁part	-372
port	-373
ount	-374
▁18	-375
▁over	-376
▁ser	-377
ode	-378
▁been	-379
▁201	-380
ations	-381
.@	-382
▁@.@	-383
▁ag	-384
clud	-385
▁would	-386
lic	-387
▁up	-388
ely	-389
ark	-390
uring	-391
▁other	-392
▁work	-393
fer	-394
over	-395
▁after	-396
▁des	-397
,@	-398
ang	-399
te	-400
▁@,@	-401
form	-402
▁all	-403
ft	-404
one	-405
▁we	-406
we	-407
▁att	-408
ite	-409
▁year	-410
amp	-411
▁they	-412
ec	-413
▁man	-414
▁col	-415
ail	-416
▁play	-417
ade	-418
ton	-419
round	-420
ild	-421
land	-422
nder	-423
▁into	-424
▁time	-425
▁pre	-426
▁6	-427
vel	-428
▁te	-429
ath	-430
man	-431
▁do	-432
vent	-433
▁when	-434
wn	-435
▁includ	-436
ced	-437
▁ret	-438
ates	-439
sh	-440
ve	-441
▁sp	-442
ict	-443
ake	-444
ring	-445
ose	-446
▁On	-447
ike	-448
ces	-449
ever	-450
▁off	-451
old	-452
les	-453
ress	-454
▁spe	-455
▁Al	-456
ward	-457
roid	-458
▁7	-459
ook	-460
▁Un	-461
▁app	-462
▁inter	-463
ata	-464
▁more	-465
▁comm	-466
ased	-467
ied	-468
▁class	-469
▁Q	-470
▁fil	-471
ors	-472
▁she	-473
ng	-474
▁him	-475
ject	-476
get	-477
ens	-478
▁tr	-479
aus	-480
▁me	-481
lect	-482
▁$	-483
oy	-484
rough	-485
ited	-486
ck	-487
ons	-488
▁so	-489
▁set	-490
▁bet	-491
ollow	-492
ix	-493
ood	-494
inal	-495
ock	-496
oint	-497
ss	-498
rib	-499
ings	-500
▁[	-501
▁qu	-502
▁8	-503
▁only	-504
ob	-505
▁pub	-506
()	-507
▁if	-508
▁sec	-509
att	-510
ep	-511
aw	-512
▁am	-513
ember	-514
▁rem	-515
▁them	-516
way	-517
ious	-518
▁-	-519
▁pos	-520
..	-521
▁kn	-522
▁pr	-523
">	-524
▁9	-525
ug	-526
▁fe	-527
▁add	-528
▁ra	-529
▁cre	-530
▁ver	-531
▁Ar	-532
ions	-533
oth	-534
▁some	-535
ener	-536
▁than	-537
ved	-538
▁num	-539
▁film	-540
ween	-541
▁Mar	-542
fore	-543
▁there	-544
ason	-545
ty	-546
elf	-547
▁fl	-548
ican	-549
ating	-550
▁end	-551
iel	-552
gan	-553
▁about	-554
▁again	-555
▁This	-556
▁my	-557
ered	-558
ven	-559
▁follow	-560
▁cent	-561
▁def	-562
▁ne	-563
▁char	-564
▁most	-565
▁Se	-566
ents	-567
▁under	-568
▁during	-569
che	-570
</	-571
orth	-572
▁cons	-573
▁De	-574
▁produ	-575
▁game	-576
ual	-577
▁between	-578
▁where	-579
▁android	-580
View	-581
▁rel	-582
tern	-583
▁return	-584
000	-585
▁199	-586
▁ear	-587
▁form	-588
▁</	-589
ics	-590
▁New	-591
▁sub	-592
▁Re	-593
▁act	-594
▁then	-595
▁bu	-596
orn	-597
ert	-598
div	-599
",	-600
io	-601
rans	-602
▁while	-603
ayout	-604
▁like	-605
ational	-606
▁through	-607
▁rele	-608
sw	-609
▁acc	-610
estion	-611
▁ap	-612
▁10	-613
▁three	-614
▁ass	-615
▁later	-616
ames	-617
▁song	-618
ank	-619
ool	-620
son	-621
▁back	-622
eth	-623
ular	-624
orld	-625
▁Qu	-626
▁call	-627
ans	-628
ren	-629
▁second	-630
ox	-631
▁use	-632
▁reg	-633
▁show	-634
row	-635
outh	-636
▁Com	-637
▁any	-638
gin	-639
ield	-640
MA	-641
▁As	-642
▁var	-643
reat	-644
ral	-645
▁public	-646
▁bl	-647
ax	-648
rid	-649
ble	-650
▁spec	-651
roup	-652
ific	-653
▁get	-654
▁day	-655
ove	-656
▁Amer	-657
cept	-658
▁made	-659
▁Le	-660
▁writ	-661
ted	-662
▁sy	-663
ull	-664
▁record	-665
als	-666
ning	-667
▁before	-668
aid	-669
▁used	-670
St	-671
ision	-672
▁such	-673
ram	-674
▁ent	-675
▁co	-676
owever	-677
ize	-678
ause	-679
▁pe	-680
ived	-681
▁tra	-682
▁no	-683
GE	-684
ars	-685
▁ac	-686
view	-687
hen	-688
ange	-689
oh	-690
▁Sh	-691
Over	-692
▁will	-693
li	-694
bum	-695
▁four	-696
ink	-697
▁loc	-698
▁inst	-699
ished	-700
swer	-701
▁number	-702
▁ob	-703
▁supp	-704
▁mon	-705
rop	-706
▁appe	-707
▁season	-708
▁ep	-709
▁000	-710
("	-711
ily	-712
▁Wh	-713
▁go	-714
ident	-715
ale	-716
other	-717
flow	-718
lement	-719
atch	-720
▁At	-721
IMA	-722
▁inc	-723
ative	-724
▁being	-725
▁lar	-726
▁mus	-727
IMAGE	-728
ince	-729
▁ext	-730
oun	-731
▁years	-732
▁team	-733
up	-734
----	-735
▁high	-736
velop	-737
ek	-738
▁found	-739
▁//	-740
alue	-741
',	-742
ten	-743
stem	-744
aj	-745
idth	-746
▁album	-747
▁sur	-748
pen	-749
▁12	-750
▁dec	-751
pr	-752
▁dif	-753
▁main	-754
▁could	-755
▁17	-756
▁run	-757
ise	-758
▁charact	-759
ines	-760
der	-761
pan	-762
▁+	-763
ained	-764
source	-765
ting	-766
▁pres	-767
▁15	-768
▁pol	-769
put	-770
ury	-771
▁After	-772
▁bel	-773
▁ind	-774
▁Stack	-775
ired	-776
▁both	-777
▁epis	-778
irect	-779
▁well	-780
▁did	-781
▁Question	-782
oad	-783
ife	-784
its	-785
▁i	-786
▁sing	-787
▁em	-788
▁Answer	-789
au	-790
Overflow	-791
▁against	-792
▁StackOverflow	-793
▁sever	-794
ery	-795
ather	-796
▁perform	-797
led	-798
set	-799
▁want	-800
▁using	-801
).	-802
ined	-803
▁inv	-804
air	-805
▁mov	-806
▁min	-807
my	-808
ern	-809
▁mod	-810
pect	-811
▁imp	-812
ts	-813
ures	-814
▁sim	-815
▁lead	-816
▁long	-817
ower	-818
▁including	-819
ray	-820
ash	-821
ype	-822
ins	-823
▁became	-824
▁trans	-825
ues	-826
▁Sc	-827
▁Brit	-828
ript	-829
unction	-830
ann	-831
▁same	-832
ution	-833
▁series	-834
oot	-835
erm	-836
UR	-837
ful	-838
ually	-839
ouse	-840
ible	-841
▁—	-842
▁name	-843
ised	-844
▁United	-845
ities	-846
▁point	-847
ared	-848
▁develop	-849
▁what	-850
▁American	-851
▁result	-852
▁198	-853
▁16	-854
iss	-855
ober	-856
ccess	-857
az	-858
▁She	-859
eb	-860
ters	-861
ird	-862
▁Joh	-863
▁many	-864
▁following	-865
apt	-866
ross	-867
ivers	-868
▁just	-869
▁your	-870
▁11	-871
▁*	-872
ement	-873
▁orig	-874
olog	-875
px	-876
▁194	-877
▁war	-878
ron	-879
▁Cl	-880
ley	-881
iver	-882
▁line	-883
▁sm	-884
ient	-885
overn	-886
▁pop	-887
▁Eng	-888
erv	-889
▁event	-890
ah	-891
app	-892
tt	-893
erson	-894
▁start	-895
▁each	-896
Cont	-897
▁stud	-898
gg	-899
roll	-900
URL	-901
();	-902
▁rece	-903
▁pass	-904
iet	-905
▁said	-906
▁Col	-907
▁need	-908
▁mill	-909
ne	-910
reen	-911
▁gener	-912
▁several	-913
▁John	-914
▁ins	-915
▁contin	-916
▁ship	-917
▁prov	-918
▁air	-919
▁view	-920
▁car	-921
▁desc	-922
▁episode	-923
though	-924
▁For	-925
eng	-926
▁inf	-927
▁bro	-928
ier	-929
▁Con	-930
▁these	-931
▁Ind	-932
▁design	-933
til	-934
rol	-935
ized	-936
play	-937
▁because	-938
▁called	-939
▁sign	-940
aking	-941
rad	-942
com	-943
▁dist	-944
▁own	-945
▁may	-946
▁ph	-947
ract	-948
imes	-949
▁eff	-950
▁known	-951
▁way	-952
▁Z	-953
▁const	-954
pos	-955
▁group	-956
▁Pro	-957
ner	-958
▁Ad	-959
ute	-960
raph	-961
▁%	-962
▁197	-963
▁direct	-964
ists	-965
ople	-966
ground	-967
ided	-968
▁feat	-969
▁Is	-970
▁open	-971
emb	-972
▁196	-973
uch	-974
▁ed	-975
▁Aust	-976
ism	-977
▁War	-978
ages	-979
▁mar	-980
▁count	-981
ef	-982
▁str	-983
els	-984
ued	-985
chool	-986
▁Bl	-987
▁art	-988
▁est	-989
▁down	-990
▁began	-991
und	-992
▁until	-993
▁Ger	-994
ically	-995
▁13	-996
▁tri	-997
ially	-998
▁fin	-999
▁aut	-1000
▁ever	-1001
▁You	-1002
▁near	-1003
▁Man	-1004
▁left	-1005
▁data	-1006
▁rep	-1007
ruct	-1008
yle	-1009
▁US	-1010
▁hel	-1011
▁early	-1012
ott	-1013
▁gu	-1014
ric	-1015
▁May	-1016
▁music	-1017
ured	-1018
add	-1019
▁released	-1020
sc	-1021
ship	-1022
▁met	-1023
▁differ	-1024
▁list	-1025
layout	-1026
une	-1027
raw	-1028
arent	-1029
▁import	-1030
▁along	-1031
ead	-1032
aving	-1033
ium	-1034
▁head	-1035
▁code	-1036
▁make	-1037
self	-1038
▁14	-1039
ody	-1040
▁success	-1041
▁disc	-1042
▁crit	-1043
urre	-1044
read	-1045
let	-1046
▁position	-1047
▁However	-1048
▁right	-1049
),	-1050
▁though	-1051
ission	-1052
▁should	-1053
▁final	-1054
ris	-1055
▁oper	-1056
▁serv	-1057
.0	-1058
ajor	-1059
cy	-1060
amed	-1061
▁requ	-1062
▁around	-1063
▁build	-1064
▁offic	-1065
▁million	-1066
▁help	-1067
▁how	-1068
enn	-1069
▁Be	-1070
lection	-1071
▁...	-1072
▁conf	-1073
▁fam	-1074
▁British	-1075
ger	-1076
▁German	-1077
20	-1078
▁All	-1079
ility	-1080
▁hist	-1081
umn	-1082
pend	-1083
▁character	-1084
aced	-1085
▁]	-1086
▁support	-1087
cont	-1088
err	-1089
▁mil	-1090
▁Pl	-1091
▁land	-1092
▁x	-1093
▁describ	-1094
itle	-1095
oard	-1096
▁system	-1097
▁Aug	-1098
▁occ	-1099
▁people	-1100
▁Can	-1101
wards	-1102
▁govern	-1103
▁Sept	-1104
oid	-1105
ives	-1106
▁And	-1107
▁World	-1108
▁September	-1109
▁August	-1110
▁When	-1111
ke	-1112
▁States	-1113
▁attack	-1114
▁function	-1115
ple	-1116
blem	-1117
('	-1118
▁top	-1119
▁batt	-1120
▁small	-1121
▁text	-1122
ets	-1123
ains	-1124
▁ann	-1125
▁det	-1126
▁state	-1127
▁win	-1128
▁exp	-1129
ample	-1130
ml	-1131
lish	-1132
col	-1133
▁last	-1134
hip	-1135
▁&	-1136
▁Ju	-1137
▁Sp	-1138
▁Fran	-1139
▁took	-1140
tr	-1141
▁area	-1142
▁Jan	-1143
ator	-1144
ling	-1145
▁195	-1146
▁sol	-1147
con	-1148
▁km	-1149
▁100	-1150
▁consid	-1151
ately	-1152
▁week	-1153
ored	-1154
Col	-1155
▁look	-1156
ys	-1157
lished	-1158
▁Oct	-1159
▁Austral	-1160
//	-1161
In	-1162
iam	-1163
▁stat	-1164
▁since	-1165
▁el	-1166
utton	-1167
▁Nov	-1168
▁By	-1169
▁Car	-1170
▁prom	-1171
▁six	-1172
10	-1173
raft	-1174
▁north	-1175
▁report	-1176
▁version	-1177
▁received	-1178
med	-1179
▁193	-1180
▁X	-1181
▁now	-1182
▁partic	-1183
▁par	-1184
▁another	-1185
▁ref	-1186
Text	-1187
▁single	-1188
ended	-1189
vious	-1190
ording	-1191
ified	-1192
▁prog	-1193
▁25	-1194
▁allow	-1195
▁dep	-1196
▁problem	-1197
line	-1198
▁rest	-1199
iving	-1200
▁som	-1201
abel	-1202
▁October	-1203
▁30	-1204
▁iss	-1205
▁place	-1206
ina	-1207
▁They	-1208
hern	-1209
▁Ed	-1210
▁try	-1211
oss	-1212
▁five	-1213
text	-1214
cent	-1215
ants	-1216
▁adv	-1217
▁bre	-1218
rist	-1219
▁child	-1220
▁div	-1221
ser	-1222
▁dr	-1223
▁York	-1224
▁Ph	-1225
hes	-1226
▁century	-1227
▁life	-1228
urrent	-1229
cess	-1230
▁poss	-1231
▁much	-1232
ments	-1233
▁North	-1234
ged	-1235
▁city	-1236
lected	-1237
▁fr	-1238
];	-1239
▁does	-1240
ument	-1241
▁Comm	-1242
▁expl	-1243
ians	-1244
by	-1245
par	-1246
itt	-1247
ches	-1248
▁June	-1249
▁sl	-1250
empt	-1251
ane	-1252
arch	-1253
ctions	-1254
▁resp	-1255
▁med	-1256
▁major	-1257
order	-1258
ret	-1259
ively	-1260
▁appro	-1261
▁world	-1262
urch	-1263
▁turn	-1264
▁based	-1265
▁men	-1266
▁vis	-1267
▁hand	-1268
▁see	-1269
rap	-1270
▁init	-1271
▁King	-1272
▁Or	-1273
▁band	-1274
ales	-1275
▁July	-1276
▁Har	-1277
▁different	-1278
▁November	-1279
idd	-1280
ene	-1281
ats	-1282
▁image	-1283
▁Will	-1284
ilt	-1285
uc	-1286
▁even	-1287
▁find	-1288
▁very	-1289
ler	-1290
▁Apr	-1291
▁still	-1292
aim	-1293
▁large	-1294
orp	-1295
▁wind	-1296
ural	-1297
▁April	-1298
uary	-1299
ica	-1300
▁ev	-1301
▁month	-1302
▁incre	-1303
))	-1304
uro	-1305
▁Mc	-1306
▁March	-1307
uss	-1308
rand	-1309
▁port	-1310
ideo	-1311
▁book	-1312
▁old	-1313
mber	-1314
▁191	-1315
▁There	-1316
▁care	-1317
▁Ex	-1318
ask	-1319
▁value	-1320
▁third	-1321
iven	-1322
▁appear	-1323
▁Ge	-1324
ilar	-1325
▁due	-1326
▁command	-1327
▁short	-1328
▁po	-1329
ature	-1330
ems	-1331
rote	-1332
▁included	-1333
▁those	-1334
min	-1335
mp	-1336
▁next	-1337
▁If	-1338
▁person	-1339
atter	-1340
alf	-1341
▁won	-1342
▁Bro	-1343
▁South	-1344
▁track	-1345
ava	-1346
▁type	-1347
▁south	-1348
▁During	-1349
▁school	-1350
▁Sy	-1351
▁che	-1352
0,	-1353
ON	-1354
▁previous	-1355
ony	-1356
▁Dece	-1357
avy	-1358
lev	-1359
ague	-1360
aged	-1361
▁December	-1362
▁II	-1363
ister	-1364
ched	-1365
▁best	-1366
osed	-1367
ices	-1368
▁every	-1369
▁wrote	-1370
▁av	-1371
▁played	-1372
▁cour	-1373
ional	-1374
td	-1375
▁January	-1376
ached	-1377
ience	-1378
esc	-1379
ball	-1380
ently	-1381
▁mark	-1382
hor	-1383
▁story	-1384
me	-1385
ior	-1386
oute	-1387
▁repl	-1388
rodu	-1389
▁Pr	-1390
▁effect	-1391
▁government	-1392
apan	-1393
akes	-1394
▁post	-1395
▁within	-1396
▁camp	-1397
▁home	-1398
▁dem	-1399
ides	-1400
ital	-1401
▁death	-1402
Name	-1403
▁named	-1404
ness	-1405
▁term	-1406
▁power	-1407
▁attempt	-1408
▁Japan	-1409
urther	-1410
▁kill	-1411
▁described	-1412
▁review	-1413
▁element	-1414
▁compan	-1415
ception	-1416
ences	-1417
yp	-1418
▁We	-1419
ethod	-1420
▁style	-1421
af	-1422
iod	-1423
embers	-1424
▁Fl	-1425
eter	-1426
▁match	-1427
List	-1428
sp	-1429
▁original	-1430
▁addition	-1431
oman	-1432
▁project	-1433
▁chang	-1434
▁deb	-1435
▁led	-1436
▁say	-1437
▁family	-1438
▁side	-1439
▁>	-1440
▁Gu	-1441
aster	-1442
▁cr	-1443
▁val	-1444
▁comple	-1445
▁belie	-1446
▁Euro	-1447
▁gun	-1448
▁know	-1449
▁prot	-1450
▁organ	-1451
oci	-1452
▁Mus	-1453
▁conc	-1454
lu	-1455
ault	-1456
Id	-1457
▁My	-1458
side	-1459
▁id	-1460
▁read	-1461
▁opp	-1462
ival	-1463
▁Te	-1464
▁great	-1465
▁leg	-1466
omin	-1467
iversity	-1468
riend	-1469
▁without	-1470
▁capt	-1471
ush	-1472
▁caus	-1473
ested	-1474
▁tour	-1475
▁games	-1476
aken	-1477
rench	-1478
eg	-1479
▁example	-1480
▁exper	-1481
▁beh	-1482
▁similar	-1483
▁order	-1484
▁refer	-1485
ape	-1486
▁equ	-1487
▁built	-1488
▁dam	-1489
▁real	-1490
▁local	-1491
▁Feb	-1492
alk	-1493
▁having	-1494
▁release	-1495
▁stand	-1496
▁however	-1497
▁self	-1498
▁tem	-1499
anc	-1500
▁His	-1501
aining	-1502
yn	-1503
ining	-1504
ruary	-1505
▁present	-1506
▁cor	-1507
▁dest	-1508
▁February	-1509
atic	-1510
1.	-1511
▁control	-1512
▁few	-1513
▁cap	-1514
▁24	-1515
▁video	-1516
▁species	-1517
que	-1518
rican	-1519
▁Par	-1520
▁Bar	-1521
▁Christ	-1522
▁role	-1523
▁take	-1524
ivate	-1525
rew	-1526
▁period	-1527
▁display	-1528
ves	-1529
▁tot	-1530
ster	-1531
▁National	-1532
▁cover	-1533
--------	-1534
▁2010	-1535
ER	-1536
▁water	-1537
ulation	-1538
bs	-1539
▁sugg	-1540
▁days	-1541
▁members	-1542
▁eng	-1543
▁begin	-1544
oon	-1545
▁21	-1546
▁level	-1547
▁although	-1548
lear	-1549
▁field	-1550
ances	-1551
ried	-1552
irc	-1553
ole	-1554
▁Europe	-1555
ttp	-1556
name	-1557
augh	-1558
urs	-1559
ridge	-1560
▁sk	-1561
na	-1562
▁held	-1563
▁ide	-1564
It	-1565
▁came	-1566
▁French	-1567
elt	-1568
width	-1569
ots	-1570
▁former	-1571
String	-1572
▁sold	-1573
▁Am	-1574
▁object	-1575
ney	-1576
▁program	-1577
yl	-1578
▁late	-1579
ateg	-1580
resent	-1581
▁No	-1582
▁gl	-1583
1,	-1584
ense	-1585
▁West	-1586
ipp	-1587
▁!	-1588
▁tw	-1589
▁proper	-1590
head	-1591
▁stre	-1592
▁estab	-1593
error	-1594
ittle	-1595
▁storm	-1596
ength	-1597
ope	-1598
ament	-1599
▁/>	-1600
ropical	-1601
▁William	-1602
ivity	-1603
val	-1604
▁One	-1605
▁2008	-1606
ograph	-1607
▁del	-1608
▁polit	-1609
mage	-1610
▁With	-1611
▁fore	-1612
▁192	-1613
uted	-1614
uck	-1615
▁jo	-1616
▁case	-1617
▁create	-1618
▁often	-1619
==	-1620
▁width	-1621
▁ke	-1622
itary	-1623
hel	-1624
▁Her	-1625
ops	-1626
▁table	-1627
▁2009	-1628
▁Char	-1629
ruction	-1630
Data	-1631
be	-1632
▁sent	-1633
ager	-1634
ploy	-1635
Layout	-1636
▁further	-1637
▁2011	-1638
")	-1639
▁town	-1640
▁fre	-1641
▁Geor	-1642
▁far	-1643
▁good	-1644
▁title	-1645
▁given	-1646
▁|	-1647
▁To	-1648
▁23	-1649
ampion	-1650
▁among	-1651
▁50	-1652
▁Ear	-1653
ably	-1654
▁continued	-1655
▁22	-1656
ung	-1657
to	-1658
▁rad	-1659
ours	-1660
ression	-1661
▁half	-1662
▁hum	-1663
pite	-1664
▁Tr	-1665
▁claim	-1666
▁anim	-1667
▁current	-1668
▁Mich	-1669
ology	-1670
mit	-1671
50	-1672
ories	-1673
estern	-1674
▁created	-1675
omen	-1676
▁player	-1677
ese	-1678
ected	-1679
▁Acc	-1680
ison	-1681
▁total	-1682
ards	-1683
▁don	-1684
▁mag	-1685
▁change	-1686
▁England	-1687
▁file	-1688
oat	-1689
ases	-1690
ham	-1691
▁considered	-1692
▁test	-1693
▁row	-1694
pec	-1695
▁comb	-1696
inc	-1697
aun	-1698
▁2012	-1699
▁fail	-1700
**	-1701
▁works	-1702
back	-1703
▁background	-1704
▁height	-1705
▁production	-1706
here	-1707
▁mat	-1708
ote	-1709
▁private	-1710
▁let	-1711
▁eas	-1712
▁2007	-1713
▁Dav	-1714
▁red	-1715
itions	-1716
ius	-1717
▁law	-1718
▁sw	-1719
▁Cal	-1720
▁plan	-1721
▁less	-1722
▁moved	-1723
▁bar	-1724
men	-1725
▁Air	-1726
▁ant	-1727
▁written	-1728
▁career	-1729
▁put	-1730
▁City	-1731
12	-1732
▁English	-1733
ones	-1734
▁able	-1735
▁Count	-1736
rag	-1737
▁Min	-1738
▁Park	-1739
▁But	-1740
roy	-1741
omb	-1742
leg	-1743
▁Pol	-1744
ows	-1745
▁become	-1746
ify	-1747
▁Su	-1748
roller	-1749
▁cast	-1750
▁Although	-1751
▁Ang	-1752
▁Cent	-1753
▁road	-1754
▁method	-1755
Cl	-1756
▁prof	-1757
▁never	-1758
ither	-1759
craft	-1760
▁history	-1761
▁include	-1762
▁east	-1763
▁En	-1764
ustom	-1765
▁sound	-1766
▁foot	-1767
ration	-1768
field	-1769
▁?	-1770
▁west	-1771
▁commun	-1772
▁Me	-1773
work	-1774
▁instead	-1775
▁Des	-1776
▁service	-1777
▁strong	-1778
▁invol	-1779
ords	-1780
▁arr	-1781
▁chart	-1782
rest	-1783
iment	-1784
ondon	-1785
ai	-1786
▁aff	-1787
▁screen	-1788
▁fact	-1789
▁working	-1790
bl	-1791
▁influ	-1792
▁here	-1793
":	-1794
▁arm	-1795
▁press	-1796
▁El	-1797
ford	-1798
▁returned	-1799
▁ten	-1800
▁house	-1801
▁fire	-1802
▁pat	-1803
dd	-1804
▁decl	-1805
▁Gener	-1806
▁London	-1807
ention	-1808
sequ	-1809
ething	-1810
▁hig	-1811
height	-1812
▁times	-1813
▁Batt	-1814
▁club	-1815
ency	-1816
▁40	-1817
aff	-1818
chn	-1819
iter	-1820
▁particular	-1821
▁190	-1822
▁While	-1823
board	-1824
▁low	-1825
▁z	-1826
▁super	-1827
ID	-1828
▁So	-1829
▁light	-1830
lication	-1831
▁making	-1832
▁sum	-1833
▁announ	-1834
▁color	-1835
iety	-1836
");	-1837
ges	-1838
▁gave	-1839
▁sit	-1840
▁below	-1841
▁cell	-1842
ev	-1843
▁River	-1844
anks	-1845
▁origin	-1846
▁country	-1847
reg	-1848
▁common	-1849
▁Canad	-1850
used	-1851
▁process	-1852
▁column	-1853
▁trad	-1854
right	-1855
▁company	-1856
▁added	-1857
Ch	-1858
▁friend	-1859
ering	-1860
▁went	-1861
rig	-1862
Ex	-1863
▁High	-1864
ald	-1865
▁points	-1866
▁lim	-1867
▁27	-1868
▁defe	-1869
▁University	-1870
▁ord	-1871
="@	-1872
▁28	-1873
▁soc	-1874
utes	-1875
▁Sw	-1876
ae	-1877
vers	-1878
▁too	-1879
▁2013	-1880
▁building	-1881
▁vict	-1882
data	-1883
▁Co	-1884
iness	-1885
ocument	-1886
ways	-1887
isc	-1888
▁Div	-1889
IN	-1890
▁struct	-1891
▁published	-1892
▁lost	-1893
▁produced	-1894
bar	-1895
▁Ass	-1896
▁performance	-1897
▁compl	-1898
new	-1899
▁size	-1900
ream	-1901
▁reported	-1902
▁represent	-1903
▁These	-1904
▁stated	-1905
▁Sec	-1906
▁According	-1907
▁arg	-1908
aign	-1909
ization	-1910
aces	-1911
ington	-1912
▁gr	-1913
▁pri	-1914
Color	-1915
▁26	-1916
odes	-1917
levision	-1918
▁Sm	-1919
content	-1920
▁2006	-1921
▁young	-1922
▁author	-1923
Item	-1924
▁key	-1925
▁larg	-1926
Button	-1927
▁squ	-1928
face	-1929
alse	-1930
▁0.	-1931
▁action	-1932
▁characters	-1933
itive	-1934
ublic	-1935
ries	-1936
▁void	-1937
▁black	-1938
▁recorded	-1939
gy	-1940
://	-1941
amb	-1942
aps	-1943
▁compet	-1944
▁Ab	-1945
ief	-1946
pon	-1947
▁Here	-1948
▁trying	-1949
date	-1950
▁forces	-1951
osp	-1952
umb	-1953
reet	-1954
▁development	-1955
aul	-1956
▁cross	-1957
▁How	-1958
day	-1959
▁ships	-1960
▁ask	-1961
urrican	-1962
▁full	-1963
▁something	-1964
dom	-1965
▁enc	-1966
▁nort	-1967
Pro	-1968
▁eight	-1969
rict	-1970
▁popular	-1971
cer	-1972
▁bus	-1973
▁elect	-1974
▁children	-1975
ned	-1976
▁opt	-1977
ests	-1978
▁range	-1979
▁Ser	-1980
▁button	-1981
▁non	-1982
▁cop	-1983
▁mult	-1984
▁border	-1985
ising	-1986
Image	-1987
▁fig	-1988
▁State	-1989
▁Rec	-1990
aut	-1991
▁white	-1992
▁relations	-1993
2.	-1994
▁himself	-1995
▁father	-1996
▁aircraft	-1997
oyal	-1998
▁Act	-1999
acy	-2000
alth	-2001
▁Australia	-2002
▁military	-2003
▁Jack	-2004
ensive	-2005
ination	-2006
tml	-2007
ottom	-2008
▁songs	-2009
ampionship	-2010
▁above	-2011
▁Af	-2012
▁surv	-2013
▁General	-2014
iber	-2015
lege	-2016
▁Sim	-2017
▁possible	-2018
aint	-2019
▁force	-2020
▁body	-2021
arget	-2022
alt	-2023
yr	-2024
most	-2025
▁battle	-2026
▁bas	-2027
iting	-2028
▁ft	-2029
▁across	-2030
▁star	-2031
oll	-2032
▁string	-2033
▁critic	-2034
essage	-2035
▁intern	-2036
▁little	-2037
▁cond	-2038
->	-2039
UI	-2040
of	-2041
eder	-2042
▁seen	-2043
ffic	-2044
▁destroy	-2045
▁think	-2046
aur	-2047
LE	-2048
omm	-2049
▁months	-2050
mar	-2051
'.	-2052
▁ground	-2053
ality	-2054
▁away	-2055
▁tried	-2056
▁189	-2057
▁successful	-2058
▁James	-2059
▁Gl	-2060
outhern	-2061
11	-2062
ille	-2063
Ar	-2064
▁gen	-2065
oice	-2066
iddle	-2067
▁inform	-2068
ressed	-2069
▁dou	-2070
],	-2071
▁error	-2072
olution	-2073
▁Pres	-2074
▁remained	-2075
▁introdu	-2076
▁ste	-2077
ref	-2078
▁developed	-2079
▁front	-2080
ps	-2081
▁national	-2082
▁Army	-2083
box	-2084
pper	-2085
http	-2086
epend	-2087
vert	-2088
▁circ	-2089
▁hold	-2090
▁ident	-2091
▁died	-2092
ming	-2093
ett	-2094
▁2014	-2095
▁signific	-2096
▁campaign	-2097
▁prim	-2098
inf	-2099
isted	-2100
▁Reg	-2101
ael	-2102
▁29	-2103
cast	-2104
▁son	-2105
▁mid	-2106
urricane	-2107
▁League	-2108
▁entire	-2109
▁fav	-2110
less	-2111
AT	-2112
era	-2113
str	-2114
▁official	-2115
lands	-2116
0.	-2117
▁various	-2118
ule	-2119
ertain	-2120
igned	-2121
▁dev	-2122
ider	-2123
')	-2124
▁followed	-2125
To	-2126
▁issue	-2127
▁true	-2128
▁areas	-2129
parent	-2130
▁pra	-2131
▁histor	-2132
iron	-2133
chie	-2134
25	-2135
▁Division	-2136
▁aver	-2137
▁noted	-2138
itor	-2139
▁reached	-2140
oe	-2141
▁break	-2142
▁once	-2143
▁thought	-2144
▁felt	-2145
▁night	-2146
▁America	-2147
pro	-2148
ogn	-2149
▁Rep	-2150
▁Per	-2151
▁diff	-2152
▁draw	-2153
▁Russ	-2154
▁separ	-2155
▁announced	-2156
▁cy	-2157
▁started	-2158
▁plot	-2159
imately	-2160
▁exec	-2161
br	-2162
iff	-2163
▁writing	-2164
▁hit	-2165
go	-2166
uff	-2167
▁County	-2168
▁Em	-2169
▁2005	-2170
▁vol	-2171
unk	-2172
▁station	-2173
▁rev	-2174
▁typ	-2175
▁user	-2176
▁cost	-2177
▁television	-2178
▁Road	-2179
▁Japanese	-2180
▁rock	-2181
▁cult	-2182
▁base	-2183
ession	-2184
▁taken	-2185
off	-2186
ee	-2187
▁coll	-2188
elling	-2189
ready	-2190
▁Street	-2191
▁performed	-2192
▁aud	-2193
abor	-2194
▁players	-2195
ened	-2196
2,	-2197
▁ur	-2198
▁tro	-2199
▁political	-2200
▁special	-2201
rect	-2202
▁’	-2203
ixed	-2204
pped	-2205
rem	-2206
▁becom	-2207
▁site	-2208
▁techn	-2209
></	-2210
ibr	-2211
ification	-2212
▁East	-2213
▁served	-2214
rame	-2215
itch	-2216
▁Rober	-2217
><	-2218
asc	-2219
idence	-2220
enced	-2221
▁rather	-2222
android	-2223
ators	-2224
▁redu	-2225
angu	-2226
▁age	-2227
▁George	-2228
▁Cont	-2229
▁general	-2230
▁either	-2231
▁comment	-2232
ounter	-2233
▁toget	-2234
ma	-2235
▁route	-2236
iction	-2237
▁Hen	-2238
▁together	-2239
▁Part	-2240
▁impro	-2241
umber	-2242
ailable	-2243
ana	-2244
▁round	-2245
▁offer	-2246
▁discover	-2247
▁conv	-2248
▁Hol	-2249
▁Phil	-2250
▁=>	-2251
duct	-2252
this	-2253
▁Mon	-2254
▁seven	-2255
reek	-2256
▁member	-2257
ought	-2258
▁close	-2259
▁--	-2260
▁Mad	-2261
▁Res	-2262
▁killed	-2263
▁sett	-2264
▁earli	-2265
▁throughout	-2266
▁significant	-2267
▁features	-2268
Res	-2269
▁Bill	-2270
▁must	-2271
▁meet	-2272
Sc	-2273
▁Med	-2274
ST	-2275
▁bo	-2276
▁fight	-2277
▁tropical	-2278
▁worked	-2279
▁agre	-2280
▁propos	-2281
▁caused	-2282
▁fem	-2283
anel	-2284
▁decided	-2285
cil	-2286
▁broad	-2287
action	-2288
▁cut	-2289
▁mm	-2290
▁else	-2291
▁important	-2292
irl	-2293
30	-2294
▁arch	-2295
▁appeared	-2296
▁Thom	-2297
▁established	-2298
thing	-2299
cing	-2300
▁Mor	-2301
▁David	-2302
leet	-2303
▁Rich	-2304
ns	-2305
▁center	-2306
▁box	-2307
▁respect	-2308
15	-2309
▁elements	-2310
aval	-2311
▁miles	-2312
ula	-2313
Value	-2314
▁Australian	-2315
▁grow	-2316
60	-2317
▁coast	-2318
▁race	-2319
▁content	-2320
ms	-2321
icult	-2322
ayer	-2323
▁cal	-2324
▁award	-2325
▁Fil	-2326
▁First	-2327
▁lik	-2328
Type	-2329
su	-2330
▁occur	-2331
▁eventually	-2332
▁page	-2333
▁Other	-2334
aterial	-2335
▁located	-2336
▁lines	-2337
stand	-2338
='	-2339
odel	-2340
Con	-2341
▁women	-2342
▁Some	-2343
bject	-2344
▁mer	-2345
CT	-2346
ivil	-2347
▁behind	-2348
▁others	-2349
▁date	-2350
▁block	-2351
):	-2352
▁Sch	-2353
▁2015	-2354
color	-2355
▁Intern	-2356
iers	-2357
acing	-2358
▁link	-2359
ceed	-2360
oph	-2361
▁relationship	-2362
ude	-2363
pany	-2364
80	-2365
ams	-2366
▁host	-2367
▁question	-2368
▁ball	-2369
...	-2370
conom	-2371
ellow	-2372
▁achie	-2373
▁log	-2374
▁Squ	-2375
not	-2376
▁length	-2377
▁saw	-2378
▁pred	-2379
14	-2380
▁Hist	-2381
▁Port	-2382
ocal	-2383
reate	-2384
emy	-2385
▁Royal	-2386
por	-2387
99	-2388
▁least	-2389
itar	-2390
▁stage	-2391
▁0;	-2392
asing	-2393
▁expect	-2394
▁Black	-2395
▁feet	-2396
ays	-2397
▁associ	-2398
▁modern	-2399
▁nov	-2400
▁completed	-2401
▁});	-2402
medi	-2403
Re	-2404
▁House	-2405
▁clos	-2406
▁better	-2407
▁keep	-2408
▁formed	-2409
▁playing	-2410
▁access	-2411
▁esc	-2412
▁print	-2413
unt	-2414
▁UI	-2415
▁opened	-2416
▁==	-2417
uk	-2418
▁model	-2419
▁provided	-2420
▁Do	-2421
rought	-2422
▁tre	-2423
idual	-2424
▁Pe	-2425
cher	-2426
▁wanted	-2427
▁exist	-2428
▁happ	-2429
▁fall	-2430
▁parent	-2431
▁String	-2432
▁rank	-2433
▁Bel	-2434
▁already	-2435
▁accept	-2436
ential	-2437
▁System	-2438
▁available	-2439
▁clear	-2440
▁check	-2441
▁difficult	-2442
0000	-2443
▁hor	-2444
load	-2445
▁crew	-2446
Box	-2447
▁free	-2448
icle	-2449
13	-2450
ump	-2451
▁space	-2452
aly	-2453
lin	-2454
▁mot	-2455
urg	-2456
▁suff	-2457
▁500	-2458
▁live	-2459
▁almost	-2460
▁going	-2461
ources	-2462
▁pract	-2463
▁might	-2464
▁hon	-2465
▁2004	-2466
▁Indian	-2467
▁population	-2468
▁idea	-2469
▁Che	-2470
▁scene	-2471
▁loss	-2472
stit	-2473
▁cur	-2474
▁ter	-2475
span	-2476
▁laun	-2477
▁Ste	-2478
▁give	-2479
NS	-2480
▁remov	-2481
Table	-2482
oted	-2483
▁indiv	-2484
icated	-2485
ze	-2486
▁That	-2487
▁party	-2488
▁lo	-2489
▁move	-2490
▁Michael	-2491
▁0,	-2492
▁hard	-2493
omet	-2494
ference	-2495
▁upon	-2496
▁shows	-2497
▁San	-2498
Controller	-2499
▁quick	-2500
adding	-2501
RO	-2502
ements	-2503
wood	-2504
▁inj	-2505
ription	-2506
▁mean	-2507
▁Robert	-2508
rain	-2509
▁Red	-2510
▁brother	-2511
▁runs	-2512
▁region	-2513
▁lack	-2514
▁miss	-2515
▁events	-2516
▁fif	-2517
▁grad	-2518
osition	-2519
PH	-2520
item	-2521
aves	-2522
▁reb	-2523
▁engine	-2524
▁subsequ	-2525
bert	-2526
▁di	-2527
▁born	-2528
▁heavy	-2529
▁France	-2530
▁placed	-2531
▁guns	-2532
▁abs	-2533
size	-2534
▁Gr	-2535
▁School	-2536
▁weeks	-2537
▁document	-2538
▁peak	-2539
5,	-2540
▁From	-2541
Path	-2542
ties	-2543
▁leading	-2544
fl	-2545
ibility	-2546
▁originally	-2547
▁allowed	-2548
▁prob	-2549
";	-2550
▁mem	-2551
▁construction	-2552
-0	-2553
▁mount	-2554
▁average	-2555
▁2000	-2556
uel	-2557
unn	-2558
ervice	-2559
▁Wash	-2560
▁margin	-2561
▁Nor	-2562
ouncil	-2563
ama	-2564
▁vari	-2565
onse	-2566
hest	-2567
ele	-2568
lease	-2569
▁recogn	-2570
java	-2571
▁Vir	-2572
▁reve	-2573
▁appoint	-2574
16	-2575
▁neg	-2576
▁fourth	-2577
▁What	-2578
AR	-2579
table	-2580
].	-2581
▁vill	-2582
▁mi	-2583
▁values	-2584
▁Best	-2585
orpor	-2586
▁Henry	-2587
tain	-2588
▁effort	-2589
▁invest	-2590
▁select	-2591
▁damage	-2592
ONE	-2593
▁Cour	-2594
Line	-2595
ique	-2596
▁_	-2597
ume	-2598
▁king	-2599
▁scored	-2600
▁foc	-2601
▁Star	-2602
ension	-2603
▁Music	-2604
▁Ag	-2605
▁business	-2606
▁conn	-2607
▁Ne	-2608
ores	-2609
▁reach	-2610
▁human	-2611
▁max	-2612
($	-2613
ari	-2614
ving	-2615
▁interest	-2616
▁required	-2617
▁response	-2618
▁individual	-2619
▁towards	-2620
▁Follow	-2621
ky	-2622
▁material	-2623
▁Stud	-2624
ological	-2625
BC	-2626
▁Battle	-2627
iol	-2628
▁brought	-2629
cell	-2630
oke	-2631
iding	-2632
▁hours	-2633
▁goal	-2634
▁187	-2635
▁done	-2636
etwork	-2637
▁rul	-2638
ills	-2639
istic	-2640
uild	-2641
▁null	-2642
▁indust	-2643
rc	-2644
▁App	-2645
▁ve	-2646
igation	-2647
oring	-2648
().	-2649
▁featured	-2650
▁Que	-2651
▁Game	-2652
▁langu	-2653
ino	-2654
▁custom	-2655
▁Paul	-2656
▁mother	-2657
aper	-2658
▁section	-2659
▁tradition	-2660
▁load	-2661
down	-2662
▁President	-2663
▁estim	-2664
draw	-2665
▁really	-2666
▁employ	-2667
▁stop	-2668
▁office	-2669
▁Dr	-2670
azine	-2671
ells	-2672
▁got	-2673
40	-2674
▁Mil	-2675
▁31	-2676
artment	-2677
▁array	-2678
▁Washington	-2679
NA	-2680
ainer	-2681
▁generally	-2682
▁pie	-2683
antic	-2684
Se	-2685
▁script	-2686
▁mass	-2687
wrap	-2688
plot	-2689
▁rail	-2690
ara	-2691
ift	-2692
▁critics	-2693
/>	-2694
rey	-2695
rown	-2696
mb	-2697
▁past	-2698
aled	-2699
ategory	-2700
▁Following	-2701
▁path	-2702
▁econom	-2703
iple	-2704
oor	-2705
▁soon	-2706
▁inside	-2707
ounds	-2708
▁shot	-2709
▁itself	-2710
ror	-2711
▁2003	-2712
▁wife	-2713
▁troops	-2714
▁contract	-2715
▁regular	-2716
▁replaced	-2717
▁sex	-2718
enes	-2719
▁Despite	-2720
▁percent	-2721
input	-2722
▁joined	-2723
adron	-2724
▁army	-2725
atab	-2726
▁sequ	-2727
▁designed	-2728
search	-2729
▁running	-2730
▁commit	-2731
▁install	-2732
▁ill	-2733
▁finished	-2734
ourn	-2735
▁election	-2736
sec	-2737
ples	-2738
▁Ham	-2739
▁Mac	-2740
▁Two	-2741
▁account	-2742
▁stru	-2743
▁saying	-2744
▁changes	-2745
ecess	-2746
▁Angel	-2747
SS	-2748
arm	-2749
ML	-2750
▁enough	-2751
▁188	-2752
▁particip	-2753
now	-2754
uture	-2755
ails	-2756
▁opening	-2757
▁Hall	-2758
ride	-2759
▁es	-2760
ks	-2761
▁Val	-2762
▁according	-2763
PHONE	-2764
▁Cup	-2765
▁Don	-2766
ibrary	-2767
▁believed	-2768
▁respons	-2769
ouch	-2770
▁op	-2771
list	-2772
▁minutes	-2773
plate	-2774
▁passed	-2775
▁room	-2776
▁Mary	-2777
▁court	-2778
▁involved	-2779
▁Great	-2780
▁fund	-2781
▁Wil	-2782
▁Lou	-2783
erous	-2784
▁victory	-2785
opt	-2786
▁186	-2787
ico	-2788
▁Met	-2789
▁mph	-2790
▁Ant	-2791
ialog	-2792
ranch	-2793
▁island	-2794
▁nomin	-2795
▁lear	-2796
▁Roman	-2797
▁Mal	-2798
▁property	-2799
utive	-2800
▁outside	-2801
▁regard	-2802
▁insp	-2803
▁European	-2804
merc	-2805
));	-2806
AA	-2807
rison	-2808
▁president	-2809
▁structure	-2810
▁come	-2811
▁pain	-2812
west	-2813
3.	-2814
asion	-2815
▁earlier	-2816
▁double	-2817
▁href	-2818
▁largest	-2819
light	-2820
SE	-2821
▁Je	-2822
▁Sing	-2823
▁Mart	-2824
▁pur	-2825
▁speed	-2826
▁Dan	-2827
"></	-2828
▁initially	-2829
▁hy	-2830
▁La	-2831
▁selected	-2832
▁Championship	-2833
▁60	-2834
ades	-2835
▁tit	-2836
▁Route	-2837
inn	-2838
▁highest	-2839
▁shown	-2840
▁ended	-2841
▁studio	-2842
▁meas	-2843
▁director	-2844
▁contrib	-2845
ander	-2846
uation	-2847
▁travel	-2848
▁threat	-2849
de	-2850
▁wall	-2851
wh	-2852
sy	-2853
▁pers	-2854
ids	-2855
▁training	-2856
▁hom	-2857
ography	-2858
anned	-2859
▁turned	-2860
▁always	-2861
button	-2862
▁failed	-2863
bor	-2864
ago	-2865
oul	-2866
▁Scott	-2867
▁prevent	-2868
▁particularly	-2869
▁conduct	-2870
body	-2871
▁taking	-2872
ki	-2873
▁bomb	-2874
▁Mag	-2875
imum	-2876
By	-2877
▁highway	-2878
▁2001	-2879
sel	-2880
▁southern	-2881
App	-2882
▁target	-2883
▁Rock	-2884
##	-2885
Ind	-2886
▁forced	-2887
Object	-2888
▁label	-2889
::	-2890
▁Ber	-2891
▁35	-2892
▁norm	-2893
▁Republic	-2894
▁information	-2895
▁Atl	-2896
▁fac	-2897
Com	-2898
older	-2899
▁immedi	-2900
rav	-2901
▁lower	-2902
▁White	-2903
antry	-2904
▁phys	-2905
hib	-2906
icon	-2907
Size	-2908
ports	-2909
▁Dep	-2910
key	-2911
perty	-2912
▁social	-2913
atural	-2914
▁appearance	-2915
icket	-2916
true	-2917
▁park	-2918
▁Kingdom	-2919
▁units	-2920
▁Charles	-2921
▁fill	-2922
▁quar	-2923
rian	-2924
▁Navy	-2925
▁slow	-2926
ilities	-2927
ban	-2928
▁bill	-2929
▁°	-2930
▁wid	-2931
▁accom	-2932
▁1.	-2933
▁feel	-2934
▁phot	-2935
lying	-2936
inter	-2937
▁correct	-2938
iforn	-2939
▁International	-2940
atabase	-2941
▁parts	-2942
▁Thomas	-2943
▁central	-2944
ios	-2945
▁Pal	-2946
▁increased	-2947
▁initial	-2948
▁Sl	-2949
rec	-2950
oo	-2951
▁ordered	-2952
image	-2953
▁Virgin	-2954
▁changed	-2955
ville	-2956
▁Just	-2957
▁educ	-2958
▁2002	-2959
Event	-2960
Add	-2961
▁Brown	-2962
▁independ	-2963
▁praised	-2964
heast	-2965
log	-2966
▁additional	-2967
ites	-2968
▁study	-2969
ability	-2970
▁hurricane	-2971
▁northern	-2972
usion	-2973
▁somet	-2974
▁signed	-2975
▁Mont	-2976
▁complet	-2977
ging	-2978
▁flow	-2979
▁implement	-2980
▁Sen	-2981
script	-2982
ership	-2983
▁profess	-2984
▁Canada	-2985
▁states	-2986
With	-2987
▁Church	-2988
orial	-2989
▁novel	-2990
▁probably	-2991
ferred	-2992
▁construct	-2993
▁pay	-2994
▁Californ	-2995
ocr	-2996
▁relig	-2997
▁contains	-2998
▁love	-2999
▁names	-3000
arily	-3001
▁positive	-3002
▁score	-3003
▁Smith	-3004
ables	-3005
change	-3006
aries	-3007
▁location	-3008
top	-3009
▁groups	-3010
aker	-3011
▁big	-3012
▁subject	-3013
▁previously	-3014
▁church	-3015
viron	-3016
▁pot	-3017
quest	-3018
Row	-3019
▁false	-3020
apter	-3021
▁product	-3022
19	-3023
▁cred	-3024
Context	-3025
24	-3026
tee	-3027
aughter	-3028
▁Pat	-3029
▁Richard	-3030
▁doing	-3031
aring	-3032
▁Alex	-3033
▁spent	-3034
▁Mark	-3035
Grid	-3036
▁cycl	-3037
IT	-3038
"/>	-3039
▁California	-3040
Date	-3041
▁determ	-3042
label	-3043
▁Play	-3044
▁Tom	-3045
▁source	-3046
▁Bay	-3047
EN	-3048
▁click	-3049
▁Union	-3050
▁told	-3051
33	-3052
▁item	-3053
▁beginning	-3054
itz	-3055
17	-3056
▁application	-3057
atin	-3058
indow	-3059
▁Ac	-3060
▁Sam	-3061
▁ax	-3062
');	-3063
▁winds	-3064
▁Company	-3065
▁certain	-3066
bers	-3067
▁God	-3068
co	-3069
▁complete	-3070
▁Art	-3071
▁ge	-3072
18	-3073
▁wat	-3074
tn	-3075
▁Er	-3076
LL	-3077
ender	-3078
sl	-3079
▁commerc	-3080
▁br	-3081
▁Im	-3082
▁asked	-3083
▁sil	-3084
▁Govern	-3085
▁Island	-3086
▁ey	-3087
▁assist	-3088
ctor	-3089
▁Court	-3090
minist	-3091
▁inn	-3092
▁treat	-3093
▁provide	-3094
▁amount	-3095
▁our	-3096
▁future	-3097
ida	-3098
▁hous	-3099
ww	-3100
▁recording	-3101
▁films	-3102
airs	-3103
ises	-3104
cho	-3105
▁search	-3106
van	-3107
▁80	-3108
▁via	-3109
▁bi	-3110
sole	-3111
▁Associ	-3112
▁status	-3113
▁Vict	-3114
▁Cong	-3115
ires	-3116
▁nar	-3117
▁football	-3118
▁Dem	-3119
nection	-3120
asons	-3121
▁nine	-3122
▁Award	-3123
▁deal	-3124
▁graph	-3125
▁radio	-3126
▁1990	-3127
left	-3128
▁whose	-3129
▁cou	-3130
irection	-3131
▁usually	-3132
Sty	-3133
▁doesn	-3134
▁font	-3135
▁Du	-3136
▁frequ	-3137
▁face	-3138
▁cru	-3139
▁reason	-3140
edy	-3141
▁Go	-3142
iqu	-3143
▁Back	-3144
isl	-3145
="#	-3146
Form	-3147
▁Not	-3148
ulated	-3149
▁directed	-3150
▁Mount	-3151
▁despite	-3152
▁Mer	-3153
▁dro	-3154
▁Germany	-3155
rd	-3156
pass	-3157
▁India	-3158
▁sometimes	-3159
▁reviews	-3160
▁mission	-3161
ston	-3162
▁interview	-3163
alion	-3164
▁approach	-3165
▁Peter	-3166
irth	-3167
map	-3168
rab	-3169
dp	-3170
▁viol	-3171
▁Add	-3172
▁Christian	-3173
▁Gold	-3174
nes	-3175
ailed	-3176
iated	-3177
bed	-3178
▁Times	-3179
imate	-3180
▁bit	-3181
ully	-3182
▁sea	-3183
▁related	-3184
ware	-3185
▁sus	-3186
mas	-3187
▁ang	-3188
Index	-3189
Man	-3190
▁consider	-3191
▁Pri	-3192
▁Ben	-3193
value	-3194
for	-3195
▁NY	-3196
berg	-3197
▁Cast	-3198
▁course	-3199
▁why	-3200
can	-3201
pecially	-3202
▁debut	-3203
mon	-3204
rief	-3205
▁£	-3206
RE	-3207
▁bring	-3208
onna	-3209
uration	-3210
html	-3211
rong	-3212
['	-3213
Bar	-3214
▁College	-3215
="@+	-3216
▁deg	-3217
▁larger	-3218
▁poor	-3219
▁UK	-3220
▁quickly	-3221
▁pict	-3222
▁solution	-3223
string	-3224
▁appears	-3225
▁Over	-3226
▁Most	-3227
img	-3228
▁Bec	-3229
▁45	-3230
▁Span	-3231
▁Hill	-3232
ql	-3233
▁Sov	-3234
index	-3235
▁streng	-3236
atory	-3237
▁international	-3238
▁simple	-3239
js	-3240
▁Br	-3241
iation	-3242
▁claimed	-3243
▁introduced	-3244
22	-3245
▁Since	-3246
▁Cro	-3247
▁McC	-3248
▁occup	-3249
▁Grand	-3250
▁Western	-3251
▁00	-3252
▁Mex	-3253
rated	-3254
▁Hot	-3255
▁gold	-3256
▁surface	-3257
▁Second	-3258
ache	-3259
▁flight	-3260
time	-3261
++	-3262
▁language	-3263
▁pen	-3264
Le	-3265
▁media	-3266
▁Soviet	-3267
uments	-3268
▁Green	-3269
▁suggested	-3270
▁Frank	-3271
▁whom	-3272
▁league	-3273
100	-3274
▁whether	-3275
osing	-3276
▁300	-3277
▁NS	-3278
Column	-3279
▁entered	-3280
▁especially	-3281
▁lyr	-3282
▁remaining	-3283
▁feature	-3284
▁problems	-3285
▁Awards	-3286
▁bur	-3287
Style	-3288
▁evidence	-3289
▁Day	-3290
▁whole	-3291
▁liter	-3292
▁remain	-3293
▁results	-3294
▁prem	-3295
▁Soc	-3296
▁cm	-3297
▁depend	-3298
▁bridge	-3299
▁Force	-3300
fig	-3301
II	-3302
▁police	-3303
▁arran	-3304
▁Out	-3305
igan	-3306
atus	-3307
▁Bra	-3308
▁seem	-3309
uth	-3310
▁Rob	-3311
iles	-3312
eum	-3313
▁figure	-3314
Act	-3315
▁approx	-3316
3,	-3317
icy	-3318
izing	-3319
agement	-3320
▁needed	-3321
▁money	-3322
▁1970	-3323
▁makes	-3324
aging	-3325
▁prior	-3326
▁food	-3327
urity	-3328
▁pack	-3329
▁minor	-3330
porary	-3331
urt	-3332
▁write	-3333
▁arrived	-3334
▁decision	-3335
▁western	-3336
▁kind	-3337
▁fort	-3338
▁unc	-3339
▁sure	-3340
▁1980	-3341
atively	-3342
▁musical	-3343
gs	-3344
▁female	-3345
mitted	-3346
▁civil	-3347
▁der	-3348
▁Britain	-3349
▁numbers	-3350
▁sat	-3351
Set	-3352
▁board	-3353
▁},	-3354
▁commission	-3355
▁hop	-3356
vironment	-3357
▁multiple	-3358
Key	-3359
▁Year	-3360
▁activ	-3361
▁Later	-3362
ribute	-3363
▁32	-3364
ands	-3365
▁community	-3366
▁longer	-3367
AL	-3368
▁actually	-3369
class	-3370
▁bottom	-3371
inct	-3372
▁den	-3373
itude	-3374
▁concern	-3375
▁magazine	-3376
▁pil	-3377
▁flood	-3378
gen	-3379
▁means	-3380
▁input	-3381
▁Inf	-3382
ply	-3383
▁conver	-3384
▁mach	-3385
icro	-3386
Label	-3387
▁surround	-3388
▁layout	-3389
liament	-3390
▁End	-3391
▁Victor	-3392
').	-3393
----------------	-3394
▁estimated	-3395
▁Cr	-3396
ordin	-3397
▁Super	-3398
▁supported	-3399
▁carried	-3400
▁scale	-3401
gl	-3402
resh	-3403
▁latter	-3404
▁guitar	-3405
use	-3406
▁Sub	-3407
▁students	-3408
▁Mill	-3409
32	-3410
▁1999	-3411
▁effects	-3412
1)	-3413
ulf	-3414
title	-3415
▁Rh	-3416
▁extend	-3417
▁Then	-3418
▁collection	-3419
▁becoming	-3420
▁Pac	-3421
▁limited	-3422
▁eastern	-3423
▁market	-3424
ening	-3425
▁defeated	-3426
▁Inter	-3427
▁removed	-3428
▁personal	-3429
▁Virginia	-3430
▁getting	-3431
▁cat	-3432
▁Early	-3433
itect	-3434
hem	-3435
▁shoot	-3436
ogle	-3437
▁specific	-3438
▁writer	-3439
▁output	-3440
▁adapt	-3441
▁teams	-3442
FF	-3443
▁wood	-3444
▁indic	-3445
▁seems	-3446
▁brief	-3447
▁pressure	-3448
icles	-3449
shire	-3450
▁complex	-3451
▁70	-3452
▁window	-3453
▁commercial	-3454
▁wide	-3455
▁Los	-3456
").	-3457
▁Text	-3458
▁leaving	-3459
▁looks	-3460
▁takes	-3461
Field	-3462
▁acqu	-3463
Qu	-3464
mir	-3465
▁message	-3466
▁Ke	-3467
plit	-3468
▁dark	-3469
▁Trans	-3470
ena	-3471
▁intended	-3472
orps	-3473
asy	-3474
▁research	-3475
▁et	-3476
▁Oper	-3477
▁cause	-3478
▁things	-3479
▁staff	-3480
izont	-3481
▁Chic	-3482
▁expected	-3483
iser	-3484
▁overall	-3485
rupt	-3486
ken	-3487
▁standard	-3488
▁Jackson	-3489
▁prison	-3490
▁higher	-3491
▁understand	-3492
▁summer	-3493
▁Many	-3494
▁theme	-3495
▁episodes	-3496
Cell	-3497
▁destroyed	-3498
anded	-3499
▁appointed	-3500
▁fit	-3501
ector	-3502
ederal	-3503
▁Bur	-3504
mission	-3505
▁yet	-3506
▁scenes	-3507
▁thus	-3508
enth	-3509
▁Flor	-3510
▁emer	-3511
45	-3512
====	-3513
▁rights	-3514
▁concert	-3515
▁Tex	-3516
▁tax	-3517
▁network	-3518
ournal	-3519
▁stay	-3520
sen	-3521
__	-3522
ocation	-3523
▁helped	-3524
▁Louis	-3525
▁Oly	-3526
▁job	-3527
▁ren	-3528
Panel	-3529
▁Tra	-3530
▁winning	-3531
▁proposed	-3532
▁flag	-3533
▁experience	-3534
▁Dis	-3535
▁purch	-3536
Array	-3537
▁Club	-3538
▁Bo	-3539
▁fleet	-3540
▁river	-3541
▁division	-3542
atives	-3543
position	-3544
▁Olymp	-3545
▁likely	-3546
rial	-3547
▁advance	-3548
user	-3549
▁Spanish	-3550
▁View	-3551
emplate	-3552
ES	-3553
▁uses	-3554
sub	-3555
▁Kh	-3556
▁vir	-3557
▁replace	-3558
▁ran	-3559
▁anti	-3560
idents	-3561
▁influence	-3562
▁Lu	-3563
inese	-3564
▁word	-3565
ishing	-3566
▁Party	-3567
▁Enter	-3568
ront	-3569
90	-3570
rigade	-3571
aven	-3572
▁37	-3573
▁movement	-3574
▁Test	-3575
▁deep	-3576
▁territ	-3577
serv	-3578
▁operations	-3579
ien	-3580
▁issues	-3581
▁girl	-3582
irm	-3583
stant	-3584
fact	-3585
▁kil	-3586
▁manager	-3587
▁1960	-3588
file	-3589
▁nearly	-3590
▁suggest	-3591
▁broadcast	-3592
ortun	-3593
▁counter	-3594
Al	-3595
▁List	-3596
OR	-3597
idget	-3598
▁establish	-3599
▁Now	-3600
▁focus	-3601
▁jud	-3602
▁static	-3603
▁90	-3604
▁Ze	-3605
Def	-3606
▁Association	-3607
▁<-	-3608
%;	-3609
inent	-3610
▁bow	-3611
pre	-3612
word	-3613
▁agreed	-3614
1"	-3615
▁favor	-3616
▁Form	-3617
rel	-3618
▁Ap	-3619
otion	-3620
erve	-3621
oud	-3622
ij	-3623
▁Chicago	-3624
▁Edward	-3625
▁intens	-3626
▁rap	-3627
▁Wind	-3628
▁forward	-3629
▁Chinese	-3630
Sh	-3631
▁directly	-3632
▁Song	-3633
▁daughter	-3634
▁compared	-3635
▁75	-3636
▁require	-3637
▁increasing	-3638
▁Another	-3639
selves	-3640
▁request	-3641
▁wor	-3642
▁Sal	-3643
writ	-3644
▁includes	-3645
▁increase	-3646
type	-3647
▁1998	-3648
▁middle	-3649
▁married	-3650
▁step	-3651
anced	-3652
▁themselves	-3653
▁exam	-3654
▁awarded	-3655
tained	-3656
4,	-3657
olic	-3658
▁bird	-3659
▁Council	-3660
▁remains	-3661
▁mostly	-3662
isions	-3663
▁Any	-3664
imin	-3665
▁obser	-3666
▁items	-3667
▁Ir	-3668
▁leave	-3669
abit	-3670
[0	-3671
enty	-3672
▁captured	-3673
▁active	-3674
▁185	-3675
▁ult	-3676
Width	-3677
Control	-3678
▁setting	-3679
▁Emp	-3680
▁Group	-3681
urb	-3682
▁altern	-3683
teen	-3684
▁blue	-3685
▁Bet	-3686
ying	-3687
▁dig	-3688
▁temper	-3689
▁Bre	-3690
▁lot	-3691
▁services	-3692
▁approximately	-3693
▁interse	-3694
▁Both	-3695
▁immediately	-3696
▁separate	-3697
idden	-3698
ria	-3699
▁du	-3700
ignment	-3701
▁dead	-3702
▁planned	-3703
▁History	-3704
▁finally	-3705
▁mention	-3706
Rect	-3707
utions	-3708
▁conclud	-3709
▁fine	-3710
Point	-3711
rast	-3712
rica	-3713
▁und	-3714
nav	-3715
▁fifth	-3716
▁upper	-3717
User	-3718
▁fans	-3719
ha	-3720
▁repe	-3721
▁Mo	-3722
ulate	-3723
▁Johnson	-3724
▁Under	-3725
▁cannot	-3726
yth	-3727
▁tracks	-3728
▁living	-3729
▁Ital	-3730
▁Kore	-3731
▁natural	-3732
bit	-3733
grad	-3734
php	-3735
▁producer	-3736
▁Kn	-3737
▁extended	-3738
▁bad	-3739
mark	-3740
▁Final	-3741
ees	-3742
▁src	-3743
){	-3744
▁dra	-3745
▁stars	-3746
▁send	-3747
zz	-3748
▁fun	-3749
▁terms	-3750
▁looking	-3751
aches	-3752
▁Pacific	-3753
▁copies	-3754
▁har	-3755
▁except	-3756
▁Billboard	-3757
▁smaller	-3758
▁countries	-3759
bour	-3760
▁wrong	-3761
▁Big	-3762
▁associated	-3763
****	-3764
▁rout	-3765
▁quarter	-3766
net	-3767
venue	-3768
:0	-3769
▁voice	-3770
▁Off	-3771
▁mom	-3772
▁prote	-3773
ergy	-3774
ero	-3775
▁consist	-3776
ously	-3777
▁woman	-3778
▁chall	-3779
▁Old	-3780
▁2.	-3781
iring	-3782
▁records	-3783
▁diss	-3784
▁distrib	-3785
elled	-3786
▁moving	-3787
▁nav	-3788
▁weap	-3789
het	-3790
▁cam	-3791
▁dram	-3792
MS	-3793
▁Its	-3794
ospital	-3795
rows	-3796
▁AS	-3797
▁Also	-3798
▁reference	-3799
▁Rad	-3800
▁Scot	-3801
▁transport	-3802
▁depart	-3803
style	-3804
▁Dist	-3805
▁behav	-3806
▁leader	-3807
reater	-3808
aily	-3809
▁slight	-3810
▁concept	-3811
hood	-3812
▁soldiers	-3813
riage	-3814
':	-3815
▁buildings	-3816
▁direction	-3817
▁boy	-3818
▁visit	-3819
▁mixed	-3820
query	-3821
▁ben	-3822
▁issued	-3823
▁1997	-3824
▁java	-3825
▁necess	-3826
35	-3827
▁36	-3828
▁lab	-3829
▁attend	-3830
ols	-3831
▁lyrics	-3832
▁prop	-3833
▁operation	-3834
izontal	-3835
Model	-3836
▁vert	-3837
▁primary	-3838
▁capital	-3839
▁portray	-3840
ado	-3841
▁Sever	-3842
astern	-3843
▁battles	-3844
▁Love	-3845
▁Atlantic	-3846
▁goals	-3847
","	-3848
▁Thanks	-3849
abled	-3850
hing	-3851
▁solid	-3852
▁Ter	-3853
▁suffered	-3854
inding	-3855
▁Lake	-3856
▁Ev	-3857
▁Florida	-3858
▁Line	-3859
▁hour	-3860
▁rid	-3861
27	-3862
well	-3863
[]	-3864
']	-3865
For	-3866
▁health	-3867
▁breed	-3868
▁calc	-3869
▁Franc	-3870
Class	-3871
▁Jim	-3872
▁touch	-3873
▁administ	-3874
▁sem	-3875
▁Jew	-3876
▁default	-3877
test	-3878
▁task	-3879
▁avoid	-3880
▁officers	-3881
win	-3882
▁cle	-3883
▁instr	-3884
▁Sea	-3885
▁images	-3886
bury	-3887
▁plant	-3888
den	-3889
enu	-3890
▁Pet	-3891
ips	-3892
ait	-3893
▁Long	-3894
37	-3895
▁Queen	-3896
▁padding	-3897
File	-3898
▁Time	-3899
▁plans	-3900
>.	-3901
▁giving	-3902
▁subsequently	-3903
umed	-3904
▁Center	-3905
▁Texas	-3906
▁minute	-3907
▁Lord	-3908
▁cele	-3909
▁pick	-3910
▁Town	-3911
▁China	-3912
▁float	-3913
▁conditions	-3914
▁occurred	-3915
▁unable	-3916
Th	-3917
▁webs	-3918
ND	-3919
▁Law	-3920
ils	-3921
▁Spe	-3922
▁respectively	-3923
64	-3924
▁Mr	-3925
ication	-3926
▁activity	-3927
▁assigned	-3928
28	-3929
oms	-3930
▁carry	-3931
▁unit	-3932
arts	-3933
Ad	-3934
▁xml	-3935
▁Aut	-3936
Time	-3937
▁Fort	-3938
▁offered	-3939
group	-3940
▁simply	-3941
orning	-3942
▁Earth	-3943
▁colon	-3944
▁contact	-3945
▁Ro	-3946
angle	-3947
Content	-3948
ste	-3949
aught	-3950
▁render	-3951
▁Main	-3952
▁Gar	-3953
▁tons	-3954
olk	-3955
▁Del	-3956
ux	-3957
▁voc	-3958
▁majority	-3959
▁letter	-3960
▁discovered	-3961
function	-3962
rie	-3963
▁sn	-3964
▁saf	-3965
▁tow	-3966
▁professional	-3967
▁Us	-3968
▁village	-3969
▁sales	-3970
cle	-3971
org	-3972
▁mur	-3973
▁fell	-3974
▁bound	-3975
▁sort	-3976
vas	-3977
▁index	-3978
▁Carol	-3979
▁Boy	-3980
▁Wood	-3981
▁pow	-3982
▁Bow	-3983
fill	-3984
▁creating	-3985
▁composed	-3986
agon	-3987
▁More	-3988
State	-3989
▁architect	-3990
like	-3991
▁sch	-3992
▁words	-3993
▁meeting	-3994
▁green	-3995
▁starting	-3996
eight	-3997
▁recomm	-3998
▁Canadian	-3999
▁imm	-4000
());	-4001
▁cand	-4002
▁rot	-4003
uries	-4004
▁cho	-4005
adium	-4006
▁thing	-4007
▁raised	-4008
▁pit	-4009
▁Africa	-4010
path	-4011
burg	-4012
yles	-4013
▁Rail	-4014
cean	-4015
▁veh	-4016
vention	-4017
▁2016	-4018
▁damaged	-4019
▁TV	-4020
▁impact	-4021
▁listed	-4022
print	-4023
▁Sun	-4024
chester	-4025
▁ens	-4026
atform	-4027
▁library	-4028
▁Ol	-4029
▁talk	-4030
▁demon	-4031
VD	-4032
▁ranked	-4033
En	-4034
kin	-4035
Click	-4036
▁revealed	-4037
▁anc	-4038
▁matches	-4039
▁dyn	-4040
▁SE	-4041
▁attacks	-4042
▁attempted	-4043
lor	-4044
▁sal	-4045
point	-4046
▁closed	-4047
▁er	-4048
▁Russian	-4049
aved	-4050
▁numerous	-4051
▁Highway	-4052
▁Squadron	-4053
▁nature	-4054
chan	-4055
omer	-4056
Par	-4057
▁Mel	-4058
select	-4059
▁financ	-4060
▁produce	-4061
▁launched	-4062
▁Mur	-4063
itation	-4064
book	-4065
An	-4066
▁1,	-4067
▁Tor	-4068
Int	-4069
▁180	-4070
acity	-4071
▁Tre	-4072
▁map	-4073
▁Central	-4074
▁Martin	-4075
oper	-4076
aland	-4077
▁Kent	-4078
▁Camp	-4079
▁Sir	-4080
▁conflic	-4081
▁domin	-4082
▁continue	-4083
▁III	-4084
▁seg	-4085
▁Class	-4086
gar	-4087
▁1995	-4088
the	-4089
▁gar	-4090
▁drop	-4091
▁inspired	-4092
▁symb	-4093
joy	-4094
shot	-4095
lib	-4096
▁Angeles	-4097
▁Def	-4098
▁prec	-4099
weight	-4100
▁corn	-4101
@"	-4102
Listener	-4103
rip	-4104
▁distance	-4105
stra	-4106
df	-4107
▁dom	-4108
▁declared	-4109
▁lived	-4110
▁birth	-4111
▁managed	-4112
▁400	-4113
place	-4114
kn	-4115
▁echo	-4116
▁remove	-4117
bre	-4118
▁grand	-4119
ares	-4120
▁princ	-4121
track	-4122
estival	-4123
uing	-4124
▁Wal	-4125
▁commented	-4126
▁Fin	-4127
▁coach	-4128
▁grant	-4129
▁Step	-4130
▁referred	-4131
BA	-4132
▁34	-4133
▁heav	-4134
▁38	-4135
▁Congress	-4136
▁qual	-4137
ection	-4138
▁attacked	-4139
ya	-4140
▁Miss	-4141
ighter	-4142
ech	-4143
▁meant	-4144
option	-4145
▁Fore	-4146
▁cases	-4147
▁normal	-4148
▁Rev	-4149
▁Tour	-4150
earch	-4151
trans	-4152
ros	-4153
▁critical	-4154
▁1996	-4155
▁stra	-4156
▁Prince	-4157
▁rate	-4158
Frame	-4159
▁sen	-4160
▁secret	-4161
▁resulted	-4162
▁query	-4163
▁adding	-4164
▁Hel	-4165
▁industry	-4166
▁nothing	-4167
▁33	-4168
uated	-4169
▁1950	-4170
▁covered	-4171
▁context	-4172
▁Greek	-4173
▁depression	-4174
rix	-4175
Override	-4176
▁scient	-4177
▁friends	-4178
▁Empire	-4179
▁yards	-4180
▁hot	-4181
very	-4182
▁Hor	-4183
▁Post	-4184
▁picture	-4185
▁adj	-4186
enant	-4187
▁levels	-4188
▁environment	-4189
▁join	-4190
ili	-4191
(0,	-4192
▁walk	-4193
▁defeat	-4194
▁elected	-4195
▁cer	-4196
isher	-4197
▁Tur	-4198
icted	-4199
▁ability	-4200
▁Jose	-4201
▁anal	-4202
gend	-4203
▁Cons	-4204
▁exact	-4205
▁male	-4206
▁1994	-4207
▁Crit	-4208
andon	-4209
background	-4210
▁singer	-4211
▁largely	-4212
▁Penn	-4213
▁Italian	-4214
▁positions	-4215
▁Service	-4216
annel	-4217
▁artist	-4218
▁protected	-4219
rovers	-4220
66	-4221
▁Film	-4222
▁defend	-4223
▁attention	-4224
fect	-4225
oured	-4226
▁fast	-4227
▁trade	-4228
▁Team	-4229
▁thr	-4230
RA	-4231
ibly	-4232
ights	-4233
▁Dou	-4234
▁recover	-4235
ipal	-4236
▁earned	-4237
▁traditional	-4238
▁legisl	-4239
▁DVD	-4240
align	-4241
osh	-4242
hold	-4243
▁progress	-4244
eck	-4245
▁comput	-4246
▁calling	-4247
Activity	-4248
▁audience	-4249
▁Sum	-4250
38	-4251
48	-4252
ka	-4253
▁Corps	-4254
';	-4255
iant	-4256
▁books	-4257
2)	-4258
▁roy	-4259
center	-4260
undred	-4261
▁frame	-4262
Of	-4263
▁web	-4264
▁refused	-4265
▁education	-4266
▁database	-4267
cel	-4268
acher	-4269
aped	-4270
osen	-4271
imal	-4272
gr	-4273
▁didn	-4274
cend	-4275
▁Viet	-4276
▁neigh	-4277
▁connect	-4278
Exception	-4279
70	-4280
Get	-4281
▁practice	-4282
LECT	-4283
▁newsp	-4284
▁sister	-4285
▁Gra	-4286
▁Tim	-4287
▁centre	-4288
▁compos	-4289
road	-4290
ui	-4291
▁enjoy	-4292
ym	-4293
TML	-4294
▁org	-4295
ragment	-4296
▁rat	-4297
▁Lin	-4298
▁Michigan	-4299
▁Int	-4300
▁square	-4301
▁officer	-4302
ube	-4303
▁Arch	-4304
CE	-4305
pat	-4306
ba	-4307
▁Mass	-4308
▁transl	-4309
ims	-4310
▁Work	-4311
▁prep	-4312
ME	-4313
▁1940	-4314
▁resulting	-4315
▁Wales	-4316
▁train	-4317
▁Produ	-4318
xml	-4319
▁performances	-4320
▁follows	-4321
▁Ott	-4322
On	-4323
▁blood	-4324
▁Nort	-4325
▁serious	-4326
▁says	-4327
OT	-4328
pose	-4329
roduct	-4330
▁ris	-4331
met	-4332
▁fighting	-4333
▁ID	-4334
▁rule	-4335
▁Ox	-4336
▁forms	-4337
adow	-4338
4.	-4339
▁Like	-4340
▁highly	-4341
▁Cath	-4342
▁African	-4343
▁pair	-4344
▁fix	-4345
▁commander	-4346
▁compon	-4347
▁presented	-4348
▁religious	-4349
Pl	-4350
▁theat	-4351
▁extra	-4352
▁Care	-4353
lied	-4354
inet	-4355
gress	-4356
Height	-4357
Template	-4358
range	-4359
▁contem	-4360
▁constit	-4361
▁watch	-4362
▁Democr	-4363
▁console	-4364
odies	-4365
▁Acad	-4366
▁completely	-4367
▁CG	-4368
▁meaning	-4369
enc	-4370
ework	-4371
iences	-4372
▁transform	-4373
▁Capt	-4374
▁Four	-4375
▁movie	-4376
▁grid	-4377
olar	-4378
init	-4379
▁Because	-4380
▁share	-4381
antasy	-4382
▁energy	-4383
lock	-4384
▁constructed	-4385
▁draft	-4386
▁);	-4387
▁competition	-4388
▁district	-4389
▁Sar	-4390
▁notes	-4391
QL	-4392
ether	-4393
oration	-4394
▁Data	-4395
▁answer	-4396
ona	-4397
anged	-4398
utch	-4399
▁Several	-4400
▁Major	-4401
▁Cor	-4402
36	-4403
▁abandon	-4404
png	-4405
▁rapid	-4406
▁Wall	-4407
▁Minister	-4408
26	-4409
resp	-4410
▁vocals	-4411
▁49	-4412
ingu	-4413
house	-4414
ipped	-4415
Element	-4416
▁1992	-4417
ounded	-4418
▁seconds	-4419
isation	-4420
aud	-4421
frame	-4422
▁spir	-4423
quar	-4424
reme	-4425
nel	-4426
▁reduced	-4427
▁anything	-4428
▁Fox	-4429
icks	-4430
29	-4431
▁Dar	-4432
▁dism	-4433
miral	-4434
▁marked	-4435
▁accepted	-4436
▁heart	-4437
▁anyone	-4438
▁store	-4439
▁website	-4440
ersey	-4441
known	-4442
▁pattern	-4443
Group	-4444
▁dut	-4445
vement	-4446
▁situation	-4447
edo	-4448
Action	-4449
▁showed	-4450
▁*/	-4451
▁tab	-4452
FA	-4453
▁none	-4454
▁files	-4455
▁currently	-4456
iced	-4457
▁candid	-4458
75	-4459
▁nearby	-4460
awn	-4461
ped	-4462
▁becomes	-4463
band	-4464
▁drum	-4465
ette	-4466
nam	-4467
▁mor	-4468
▁Kenn	-4469
▁maximum	-4470
ean	-4471
ishop	-4472
▁royal	-4473
alle	-4474
▁annual	-4475
▁foreign	-4476
▁Zealand	-4477
▁edition	-4478
▁cas	-4479
▁Chris	-4480
irmed	-4481
▁Matt	-4482
orter	-4483
▁columns	-4484
▁Haw	-4485
Window	-4486
▁chief	-4487
ption	-4488
▁ending	-4489
:(	-4490
▁comes	-4491
▁forest	-4492
▁Set	-4493
▁Mexico	-4494
▁thick	-4495
web	-4496
ulations	-4497
▁combat	-4498
▁respond	-4499
▁Bob	-4500
Ed	-4501
Manager	-4502
▁gives	-4503
▁ut	-4504
▁strugg	-4505
▁controvers	-4506
▁tag	-4507
▁mind	-4508
▁save	-4509
▁stating	-4510
▁piece	-4511
PI	-4512
(),	-4513
stitute	-4514
ieut	-4515
▁adult	-4516
▁Book	-4517
ini	-4518
▁1930	-4519
▁option	-4520
▁amb	-4521
▁attended	-4522
▁kept	-4523
wide	-4524
istry	-4525
▁sevent	-4526
ader	-4527
eway	-4528
▁tree	-4529
▁catch	-4530
1]	-4531
▁150	-4532
▁Brad	-4533
▁Three	-4534
itable	-4535
ih	-4536
▁twenty	-4537
ita	-4538
▁responsible	-4539
AS	-4540
▁versions	-4541
olved	-4542
▁1993	-4543
ceeded	-4544
▁metal	-4545
▁protect	-4546
fall	-4547
▁mix	-4548
▁dropped	-4549
▁trib	-4550
obal	-4551
no	-4552
▁48	-4553
▁Madonna	-4554
main	-4555
▁Cross	-4556
▁1991	-4557
▁Max	-4558
▁legal	-4559
css	-4560
▁onto	-4561
rolled	-4562
▁Their	-4563
▁culture	-4564
▁Department	-4565
▁Up	-4566
▁sides	-4567
▁Scotland	-4568
lee	-4569
▁attract	-4570
▁Jones	-4571
▁slightly	-4572
▁nuc	-4573
claim	-4574
vis	-4575
ilter	-4576
▁begins	-4577
▁quality	-4578
▁ideas	-4579
▁greater	-4580
▁schools	-4581
embly	-4582
lo	-4583
stance	-4584
▁Foot	-4585
▁kilomet	-4586
ifying	-4587
1.0	-4588
▁efforts	-4589
ViewController	-4590
44	-4591
▁college	-4592
▁incorpor	-4593
istics	-4594
▁portion	-4595
py	-4596
▁horse	-4597
▁vot	-4598
isplay	-4599
▁causing	-4600
▁objects	-4601
▁marriage	-4602
▁exc	-4603
illery	-4604
▁39	-4605
200	-4606
▁missing	-4607
obile	-4608
▁sche	-4609
▁wing	-4610
▁morning	-4611
olf	-4612
▁defined	-4613
▁/*	-4614
▁continues	-4615
▁Mat	-4616
▁variety	-4617
▁gra	-4618
▁allowing	-4619
▁split	-4620
▁rare	-4621
▁purs	-4622
▁Commit	-4623
ROM	-4624
▁News	-4625
▁today	-4626
▁Point	-4627
xt	-4628
▁bank	-4629
▁discuss	-4630
▁actions	-4631
ieutenant	-4632
▁55	-4633
izes	-4634
▁Bost	-4635
▁everything	-4636
▁Kar	-4637
match	-4638
▁nation	-4639
▁Infantry	-4640
▁Creek	-4641
▁Tw	-4642
ala	-4643
▁Leg	-4644
pty	-4645
▁sense	-4646
▁visual	-4647
},	-4648
▁Oh	-4649
▁Records	-4650
▁oil	-4651
▁hundred	-4652
▁Each	-4653
Left	-4654
onic	-4655
▁Pre	-4656
ani	-4657
Count	-4658
▁Stone	-4659
▁cyclone	-4660
▁rows	-4661
iance	-4662
▁houses	-4663
▁collect	-4664
▁passing	-4665
uit	-4666
een	-4667
▁distinct	-4668
▁cerem	-4669
▁Secret	-4670
▁inches	-4671
▁lay	-4672
▁Ann	-4673
▁Spec	-4674
inner	-4675
▁Before	-4676
state	-4677
▁championship	-4678
char	-4679
alled	-4680
▁machine	-4681
▁editor	-4682
▁Sat	-4683
▁science	-4684
▁Background	-4685
peror	-4686
▁Williams	-4687
▁Hung	-4688
atal	-4689
▁matter	-4690
thel	-4691
▁emb	-4692
▁univers	-4693
▁arrest	-4694
▁Sil	-4695
aling	-4696
▁potential	-4697
▁coming	-4698
▁Get	-4699
78	-4700
▁yard	-4701
arLayout	-4702
▁Stan	-4703
▁relatively	-4704
rier	-4705
▁presence	-4706
▁server	-4707
▁Som	-4708
▁Games	-4709
ls	-4710
▁spot	-4711
39	-4712
▁Jo	-4713
ady	-4714
illa	-4715
▁platform	-4716
▁format	-4717
▁config	-4718
olt	-4719
yg	-4720
more	-4721
▁enter	-4722
▁economic	-4723
▁Parliament	-4724
="{	-4725
▁condition	-4726
▁scroll	-4727
▁tim	-4728
▁traffic	-4729
gypt	-4730
▁Pop	-4731
▁attempts	-4732
▁wear	-4733
udd	-4734
▁ess	-4735
▁mechan	-4736
▁ded	-4737
▁Dev	-4738
find	-4739
Query	-4740
▁beat	-4741
▁Latin	-4742
▁contrast	-4743
▁conducted	-4744
▁param	-4745
thur	-4746
▁lif	-4747
▁Di	-4748
▁Society	-4749
▁enemy	-4750
▁Egypt	-4751
▁viewers	-4752
heet	-4753
▁menu	-4754
▁exhib	-4755
▁Pan	-4756
▁1942	-4757
margin	-4758
bo	-4759
▁dance	-4760
▁Show	-4761
▁transferred	-4762
ada	-4763
code	-4764
sche	-4765
▁Jer	-4766
▁metres	-4767
eds	-4768
iate	-4769
▁FROM	-4770
▁showing	-4771
▁independent	-4772
▁ir	-4773
uge	-4774
ramework	-4775
var	-4776
▁64	-4777
▁strateg	-4778
length	-4779
▁Southern	-4780
▁Clark	-4781
▁Stephen	-4782
amily	-4783
TC	-4784
▁recent	-4785
▁Committee	-4786
itiz	-4787
▁owned	-4788
bon	-4789
astic	-4790
▁Den	-4791
▁Georg	-4792
ograp	-4793
"><	-4794
▁observed	-4795
▁alt	-4796
▁Fre	-4797
▁Oxford	-4798
▁peaked	-4799
otal	-4800
▁Your	-4801
▁dialog	-4802
link	-4803
▁rating	-4804
▁parents	-4805
rea	-4806
▁captain	-4807
34	-4808
▁Inst	-4809
▁founded	-4810
orpedo	-4811
▁contain	-4812
▁cert	-4813
▁Ver	-4814
▁divided	-4815
▁rough	-4816
▁xmlns	-4817
while	-4818
▁concluded	-4819
Menu	-4820
▁Joseph	-4821
▁Series	-4822
▁stories	-4823
ules	-4824
anna	-4825
▁primarily	-4826
▁Cap	-4827
▁Camb	-4828
▁scoring	-4829
▁Ty	-4830
▁quite	-4831
▁Admiral	-4832
▁Fire	-4833
▁vocal	-4834
ellig	-4835
▁shell	-4836
▁Boston	-4837
▁paid	-4838
▁achieve	-4839
amic	-4840
▁castle	-4841
▁financial	-4842
▁mel	-4843
▁animals	-4844
ysis	-4845
itan	-4846
▁Jeff	-4847
▁opportun	-4848
oz	-4849
▁Manchester	-4850
▁combined	-4851
▁Chief	-4852
▁reject	-4853
////	-4854
active	-4855
▁address	-4856
▁strength	-4857
▁inch	-4858
▁Harrison	-4859
menu	-4860
▁IN	-4861
▁policy	-4862
▁'<	-4863
▁titled	-4864
▁couple	-4865
rick	-4866
▁Van	-4867
▁federal	-4868
▁sources	-4869
▁Swed	-4870
▁companies	-4871
Sub	-4872
▁Ma	-4873
▁actor	-4874
roke	-4875
▁trial	-4876
child	-4877
▁<!	-4878
▁Captain	-4879
count	-4880
ULL	-4881
▁Commission	-4882
▁instance	-4883
▁Hurricane	-4884
▁Far	-4885
▁selection	-4886
▁relative	-4887
ATE	-4888
ras	-4889
▁fa	-4890
▁observ	-4891
▁journal	-4892
olid	-4893
▁featuring	-4894
▁acting	-4895
▁writers	-4896
▁Cle	-4897
▁clim	-4898
sm	-4899
Log	-4900
lines	-4901
▁Bridge	-4902
ota	-4903
gu	-4904
▁weight	-4905
stein	-4906
▁overl	-4907
▁Fred	-4908
▁benef	-4909
▁->	-4910
▁1944	-4911
▁Bat	-4912
fully	-4913
nament	-4914
▁cells	-4915
icate	-4916
▁student	-4917
respond	-4918
atures	-4919
fo	-4920
▁multi	-4921
▁returning	-4922
▁believe	-4923
▁passeng	-4924
▁sout	-4925
▁thous	-4926
pha	-4927
▁suc	-4928
▁weaken	-4929
escription	-4930
▁Ret	-4931
▁premi	-4932
▁Little	-4933
ponent	-4934
ease	-4935
▁Tod	-4936
▁ultimately	-4937
▁shape	-4938
▁Life	-4939
▁concent	-4940
▁Battalion	-4941
asp	-4942
▁Sk	-4943
▁session	-4944
render	-4945
▁Paris	-4946
▁apprec	-4947
▁reform	-4948
▁collabor	-4949
▁celebr	-4950
▁Columb	-4951
▁poet	-4952
▁someone	-4953
▁Arm	-4954
▁peace	-4955
▁Norm	-4956
▁autom	-4957
▁Mod	-4958
▁views	-4959
▁tell	-4960
▁broke	-4961
omy	-4962
▁attrib	-4963
▁selling	-4964
▁explained	-4965
▁Good	-4966
▁loop	-4967
▁download	-4968
▁Color	-4969
▁mainly	-4970
▁plays	-4971
▁types	-4972
▁47	-4973
perial	-4974
▁pull	-4975
▁older	-4976
▁master	-4977
▁investig	-4978
AF	-4979
▁news	-4980
▁Mem	-4981
▁CSS	-4982
▁properties	-4983
show	-4984
▁BBC	-4985
▁Key	-4986
▁Field	-4987
▁innings	-4988
thlet	-4989
▁Entertain	-4990
▁Week	-4991
▁consec	-4992
imension	-4993
stone	-4994
▁torpedo	-4995
iled	-4996
url	-4997
▁waters	-4998
▁systems	-4999
▁Croat	-5000
▁era	-5001
▁Way	-5002
▁65	-5003
▁perfect	-5004
wise	-5005
▁1920	-5006
check	-5007
▁Histor	-5008
ById	-5009
▁Ell	-5010
▁capture	-5011
▁Home	-5012
▁psy	-5013
Val	-5014
▁tells	-5015
ipment	-5016
inem	-5017
▁ple	-5018
▁fields	-5019
OS	-5020
ancy	-5021
aming	-5022
▁Arab	-5023
▁powerful	-5024
▁theory	-5025
▁containing	-5026
▁Academy	-5027
▁sought	-5028
ga	-5029
cers	-5030
▁moment	-5031
▁Orig	-5032
▁designated	-5033
rite	-5034
▁1945	-5035
▁batter	-5036
uous	-5037
osaur	-5038
▁Conf	-5039
▁Top	-5040
▁subsequent	-5041
HL	-5042
▁returns	-5043
arian	-5044
▁society	-5045
TV	-5046
▁vess	-5047
▁Young	-5048
za	-5049
Trans	-5050
▁Museum	-5051
▁hus	-5052
▁600	-5053
▁struck	-5054
▁3.	-5055
▁winter	-5056
▁Saint	-5057
▁spread	-5058
▁Cam	-5059
eader	-5060
ii	-5061
▁alongside	-5062
▁Av	-5063
▁hero	-5064
▁copy	-5065
▁Hal	-5066
▁1941	-5067
iano	-5068
▁officials	-5069
▁thir	-5070
▁confirmed	-5071
▁seek	-5072
Sp	-5073
ufact	-5074
▁influenced	-5075
rative	-5076
▁ele	-5077
▁Carl	-5078
mond	-5079
UT	-5080
▁Italy	-5081
post	-5082
▁Bas	-5083
inary	-5084
▁serve	-5085
▁Entertainment	-5086
ny	-5087
TextView	-5088
▁deploy	-5089
▁unique	-5090
▁northeast	-5091
▁Land	-5092
▁therefore	-5093
▁update	-5094
▁$(	-5095
clus	-5096
47	-5097
▁ice	-5098
▁integ	-5099
lies	-5100
▁Web	-5101
orses	-5102
▁Direct	-5103
▁Rog	-5104
▁Brigade	-5105
▁pal	-5106
▁apparent	-5107
▁encour	-5108
▁Americans	-5109
prise	-5110
▁represented	-5111
phy	-5112
▁battleship	-5113
▁Lee	-5114
ION	-5115
▁weather	-5116
({	-5117
▁reaching	-5118
▁Ire	-5119
atically	-5120
▁artists	-5121
▁Rel	-5122
▁goes	-5123
▁necessary	-5124
▁Ray	-5125
▁albums	-5126
▁charge	-5127
Create	-5128
soft	-5129
▁Det	-5130
pport	-5131
▁existing	-5132
▁physical	-5133
▁widely	-5134
Load	-5135
CO	-5136
▁$('	-5137
▁Light	-5138
▁gained	-5139
▁successfully	-5140
ylvan	-5141
])	-5142
▁cities	-5143
▁nominated	-5144
adel	-5145
▁promoted	-5146
▁correspond	-5147
iny	-5148
▁highlight	-5149
▁Chart	-5150
▁fully	-5151
▁greatest	-5152
quarters	-5153
war	-5154
▁native	-5155
▁electric	-5156
▁Regiment	-5157
▁twice	-5158
▁naval	-5159
▁connection	-5160
host	-5161
▁adop	-5162
uses	-5163
▁proved	-5164
88	-5165
pson	-5166
▁Though	-5167
ushed	-5168
eld	-5169
▁aspect	-5170
rowd	-5171
▁deliv	-5172
▁Avenue	-5173
▁Ireland	-5174
▁actual	-5175
▁resist	-5176
▁Fleet	-5177
▁delay	-5178
mod	-5179
rome	-5180
▁Tem	-5181
olute	-5182
Back	-5183
▁Att	-5184
click	-5185
▁county	-5186
▁1989	-5187
aga	-5188
▁sixth	-5189
▁invasion	-5190
▁expressed	-5191
▁variable	-5192
▁mentioned	-5193
ervation	-5194
▁rect	-5195
▁shortly	-5196
}"	-5197
:00	-5198
▁doub	-5199
lim	-5200
▁46	-5201
="0	-5202
ato	-5203
▁statement	-5204
▁identified	-5205
▁memory	-5206
▁ahead	-5207
CA	-5208
▁pilot	-5209
icker	-5210
▁Live	-5211
▁northwest	-5212
▁Ram	-5213
▁mis	-5214
▁termin	-5215
▁launch	-5216
▁spring	-5217
▁1943	-5218
Top	-5219
▁Commun	-5220
▁needs	-5221
▁Of	-5222
▁sust	-5223
▁favour	-5224
▁Sant	-5225
▁syn	-5226
pping	-5227
▁floor	-5228
▁Spring	-5229
▁reception	-5230
LA	-5231
verse	-5232
▁alone	-5233
ystem	-5234
▁sequence	-5235
▁Fe	-5236
oding	-5237
▁exception	-5238
▁fired	-5239
▁options	-5240
stream	-5241
▁Victoria	-5242
▁Middle	-5243
▁Ros	-5244
och	-5245
▁edge	-5246
▁Catholic	-5247
▁Ill	-5248
▁bul	-5249
▁residents	-5250
49	-5251
aded	-5252
pool	-5253
▁chem	-5254
:5	-5255
▁pun	-5256
▁hospital	-5257
bur	-5258
▁Tropical	-5259
','	-5260
jo	-5261
▁soundtrack	-5262
▁Valley	-5263
▁WH	-5264
▁prompt	-5265
▁seasons	-5266
▁roll	-5267
▁feed	-5268
▁details	-5269
▁installed	-5270
▁appearances	-5271
▁wild	-5272
▁pieces	-5273
▁hands	-5274
▁Upon	-5275
▁Charl	-5276
block	-5277
infall	-5278
ighth	-5279
come	-5280
▁affected	-5281
▁sexual	-5282
▁kg	-5283
Source	-5284
▁iron	-5285
▁Bus	-5286
▁Hard	-5287
▁dru	-5288
▁Ry	-5289
ledge	-5290
velopment	-5291
▁calls	-5292
▁Jul	-5293
▁HTML	-5294
▁sens	-5295
▁Through	-5296
▁activities	-5297
ić	-5298
▁methods	-5299
▁heavily	-5300
iro	-5301
▁contained	-5302
inson	-5303
▁fair	-5304
▁SS	-5305
▁Person	-5306
max	-5307
fficient	-5308
ipse	-5309
▁ring	-5310
▁artillery	-5311
▁chosen	-5312
▁organization	-5313
pton	-5314
create	-5315
▁IS	-5316
▁classes	-5317
▁demonstr	-5318
▁Football	-5319
▁mode	-5320
▁figures	-5321
▁weapons	-5322
start	-5323
pansion	-5324
▁resc	-5325
▁reports	-5326
▁Liber	-5327
▁yellow	-5328
▁negot	-5329
▁Bey	-5330
▁Tay	-5331
▁instrument	-5332
erc	-5333
▁receive	-5334
▁visited	-5335
haps	-5336
▁alloc	-5337
And	-5338
▁Gal	-5339
grid	-5340
abeth	-5341
▁officially	-5342
ronic	-5343
▁paper	-5344
rate	-5345
outer	-5346
ylvania	-5347
lers	-5348
▁defense	-5349
ifications	-5350
▁Dutch	-5351
oles	-5352
▁gas	-5353
▁url	-5354
▁studies	-5355
▁farm	-5356
▁panel	-5357
▁DE	-5358
ipe	-5359
▁Name	-5360
▁expos	-5361
▁straight	-5362
LinearLayout	-5363
CC	-5364
▁ends	-5365
clusion	-5366
▁governor	-5367
▁equipment	-5368
▁Fer	-5369
▁restrict	-5370
▁husband	-5371
▁prepar	-5372
rical	-5373
▁Eliz	-5374
▁[[	-5375
▁Log	-5376
▁conflict	-5377
ruit	-5378
andler	-5379
▁negative	-5380
▁instit	-5381
▁executive	-5382
:@"	-5383
udget	-5384
▁stone	-5385
▁trou	-5386
▁laid	-5387
arden	-5388
▁Short	-5389
ERE	-5390
▁!=	-5391
▁Dam	-5392
▁eth	-5393
▁prominent	-5394
▁growth	-5395
▁debuted	-5396
▁Men	-5397
▁consisted	-5398
▁Public	-5399
ockey	-5400
▁injury	-5401
▁article	-5402
▁earth	-5403
DE	-5404
▁habit	-5405
▁leaves	-5406
xy	-5407
77	-5408
▁experiment	-5409
▁exped	-5410
▁measure	-5411
▁hun	-5412
▁degree	-5413
struction	-5414
▁encounter	-5415
▁compar	-5416
Map	-5417
▁bal	-5418
▁Bond	-5419
▁branch	-5420
def	-5421
46	-5422
▁argued	-5423
▁aired	-5424
▁description	-5425
▁attached	-5426
Er	-5427
▁*)	-5428
etch	-5429
uled	-5430
▁sets	-5431
▁trees	-5432
▁Civil	-5433
▁extension	-5434
▁wit	-5435
####	-5436
▁Homer	-5437
▁maintained	-5438
▁speech	-5439
▁occasion	-5440
▁Tri	-5441
▁typically	-5442
▁Rom	-5443
▁contemporary	-5444
ias	-5445
▁note	-5446
▁orders	-5447
▁179	-5448
Draw	-5449
essions	-5450
icrosoft	-5451
emic	-5452
>'	-5453
▁unknown	-5454
>,	-5455
())	-5456
▁MD	-5457
▁Mu	-5458
ickets	-5459
▁Jon	-5460
▁lat	-5461
▁accident	-5462
▁Northern	-5463
▁opin	-5464
▁leaders	-5465
▁Writ	-5466
▁Marsh	-5467
▁li	-5468
▁purpose	-5469
▁pret	-5470
under	-5471
ients	-5472
▁dog	-5473
asket	-5474
▁Gil	-5475
▁spend	-5476
▁Daniel	-5477
▁Image	-5478
23	-5479
▁Storm	-5480
▁escape	-5481
▁District	-5482
▁sched	-5483
▁gets	-5484
▁paint	-5485
▁toward	-5486
▁hyd	-5487
▁Operation	-5488
▁Corn	-5489
▁Card	-5490
▁camera	-5491
▁emph	-5492
▁claims	-5493
antly	-5494
▁Mean	-5495
▁risk	-5496
▁faced	-5497
▁criticized	-5498
elve	-5499
▁newly	-5500
▁Carolina	-5501
▁passes	-5502
▁imag	-5503
room	-5504
gram	-5505
▁Hon	-5506
▁citiz	-5507
▁tournament	-5508
▁hall	-5509
inition	-5510
Web	-5511
▁drawn	-5512
▁crowd	-5513
▁doll	-5514
▁Rem	-5515
▁soft	-5516
▁Command	-5517
rice	-5518
ropri	-5519
▁chose	-5520
▁weak	-5521
▁reign	-5522
intend	-5523
▁equal	-5524
▁ment	-5525
▁formation	-5526
ura	-5527
▁icon	-5528
▁ign	-5529
▁singles	-5530
▁chance	-5531
▁shared	-5532
▁frequently	-5533
▁Windows	-5534
▁medical	-5535
▁};	-5536
▁unf	-5537
▁choice	-5538
▁surrounding	-5539
▁1987	-5540
▁senior	-5541
gers	-5542
▁treatment	-5543
oken	-5544
▁Scottish	-5545
▁guest	-5546
▁quest	-5547
▁computer	-5548
▁territory	-5549
uct	-5550
▁brown	-5551
".	-5552
▁Sur	-5553
▁settlement	-5554
▁stations	-5555
sql	-5556
▁worldwide	-5557
▁god	-5558
▁1988	-5559
btn	-5560
▁Government	-5561
▁controller	-5562
gn	-5563
clude	-5564
▁BC	-5565
▁birds	-5566
eller	-5567
▁walls	-5568
▁Holly	-5569
1:	-5570
▁Even	-5571
▁Event	-5572
▁Governor	-5573
▁Pen	-5574
▁subs	-5575
▁Fantasy	-5576
▁Ocean	-5577
ussion	-5578
▁fellow	-5579
▁Colon	-5580
stitution	-5581
▁possibly	-5582
▁rainfall	-5583
▁Guard	-5584
▁coordin	-5585
▁opposed	-5586
▁university	-5587
ulture	-5588
▁Further	-5589
▁swe	-5590
▁illust	-5591
▁achieved	-5592
bottom	-5593
▁advant	-5594
▁insert	-5595
gian	-5596
▁manufact	-5597
www	-5598
▁murder	-5599
▁120	-5600
infor	-5601
▁remark	-5602
rance	-5603
▁Head	-5604
▁Pers	-5605
▁historian	-5606
▁Let	-5607
orne	-5608
gent	-5609
rael	-5610
▁Penns	-5611
enge	-5612
▁bey	-5613
▁bass	-5614
▁places	-5615
drawable	-5616
azz	-5617
▁fixed	-5618
kins	-5619
▁Rod	-5620
▁mist	-5621
amber	-5622
tered	-5623
▁easily	-5624
▁mut	-5625
▁extends	-5626
▁Id	-5627
▁failure	-5628
▁Duke	-5629
▁rh	-5630
isters	-5631
Adapter	-5632
▁Studios	-5633
▁Girl	-5634
▁sym	-5635
Default	-5636
success	-5637
▁planet	-5638
▁Lew	-5639
▁consecutive	-5640
▁Polish	-5641
▁err	-5642
▁expansion	-5643
isco	-5644
after	-5645
ety	-5646
▁vote	-5647
pload	-5648
▁beyond	-5649
Application	-5650
▁44	-5651
▁allows	-5652
Vis	-5653
la	-5654
▁Night	-5655
▁dismiss	-5656
▁advanced	-5657
▁turns	-5658
▁Senate	-5659
▁recently	-5660
ographer	-5661
▁Jud	-5662
▁billion	-5663
ET	-5664
▁Eastern	-5665
avasc	-5666
▁Andrew	-5667
▁Once	-5668
apping	-5669
▁Order	-5670
▁guard	-5671
▁Blue	-5672
eed	-5673
see	-5674
▁0.0	-5675
hew	-5676
▁challeng	-5677
▁tend	-5678
Widget	-5679
▁basis	-5680
▁lives	-5681
enter	-5682
▁diam	-5683
▁grew	-5684
avascript	-5685
▁operated	-5686
▁dang	-5687
▁rear	-5688
▁growing	-5689
▁fan	-5690
▁fuel	-5691
▁Christmas	-5692
▁CD	-5693
appe	-5694
▁accompan	-5695
▁Init	-5696
▁workers	-5697
▁recon	-5698
▁Bart	-5699
▁horses	-5700
uate	-5701
event	-5702
IS	-5703
▁serving	-5704
ears	-5705
▁herself	-5706
db	-5707
▁Luc	-5708
▁phil	-5709
▁security	-5710
▁<?	-5711
ocked	-5712
▁wounded	-5713
lew	-5714
▁repeated	-5715
▁Sound	-5716
▁aw	-5717
▁Allied	-5718
ucky	-5719
▁Wilson	-5720
▁elev	-5721
▁heard	-5722
▁---	-5723
6,	-5724
ponse	-5725
Un	-5726
▁Beat	-5727
CH	-5728
▁Open	-5729
▁Bru	-5730
0,0,	-5731
eters	-5732
▁Taylor	-5733
▁losing	-5734
ilies	-5735
▁virt	-5736
▁railway	-5737
result	-5738
▁1986	-5739
▁deck	-5740
▁reinfor	-5741
▁provides	-5742
icit	-5743
▁arms	-5744
▁assault	-5745
▁authority	-5746
▁paralle	-5747
"]	-5748
▁Joe	-5749
▁emphas	-5750
ifier	-5751
▁Elizabeth	-5752
▁roles	-5753
▁Alexander	-5754
iform	-5755
▁visible	-5756
▁burn	-5757
uman	-5758
▁etc	-5759
▁capacity	-5760
▁synt	-5761
▁Gall	-5762
▁Jac	-5763
▁Ul	-5764
▁spect	-5765
▁ways	-5766
▁Dun	-5767
▁mess	-5768
ancing	-5769
▁creation	-5770
▁drive	-5771
▁WW	-5772
▁hope	-5773
ima	-5774
umes	-5775
▁participated	-5776
▁Albert	-5777
▁broken	-5778
▁Castle	-5779
▁Tro	-5780
▁casual	-5781
▁42	-5782
▁95	-5783
▁entry	-5784
▁belong	-5785
▁device	-5786
.5	-5787
▁800	-5788
▁rain	-5789
false	-5790
▁newspaper	-5791
cles	-5792
▁Mid	-5793
anda	-5794
▁producers	-5795
press	-5796
▁eye	-5797
▁liber	-5798
▁adopted	-5799
▁budget	-5800
▁Pu	-5801
Att	-5802
▁spirit	-5803
apers	-5804
iner	-5805
▁actors	-5806
container	-5807
▁severe	-5808
▁plt	-5809
▁Festival	-5810
▁displayed	-5811
▁oppon	-5812
rat	-5813
vin	-5814
▁Mike	-5815
▁rom	-5816
▁council	-5817
▁filming	-5818
▁Addition	-5819
sv	-5820
TableView	-5821
▁Vis	-5822
inth	-5823
▁projects	-5824
▁Pennsylvania	-5825
▁85	-5826
illy	-5827
▁opposition	-5828
▁Islands	-5829
▁expanded	-5830
▁offensive	-5831
▁fiction	-5832
▁models	-5833
▁symbol	-5834
()'	-5835
ints	-5836
▁management	-5837
▁developing	-5838
▁header	-5839
agn	-5840
▁basic	-5841
Message	-5842
▁valid	-5843
rowser	-5844
▁supply	-5845
▁abandoned	-5846
▁Tech	-5847
▁Reception	-5848
Ent	-5849
omic	-5850
▁html	-5851
ienced	-5852
▁card	-5853
otional	-5854
zer	-5855
▁Ob	-5856
▁legend	-5857
Im	-5858
ptions	-5859
FL	-5860
▁Lar	-5861
▁Square	-5862
zy	-5863
▁Mov	-5864
▁Jersey	-5865
▁squadron	-5866
▁locations	-5867
▁Irish	-5868
rich	-5869
▁upd	-5870
["	-5871
ola	-5872
ners	-5873
▁rival	-5874
ifically	-5875
▁honor	-5876
ao	-5877
▁colour	-5878
▁boat	-5879
▁flying	-5880
▁behavior	-5881
estic	-5882
▁coal	-5883
▁individuals	-5884
▁silver	-5885
attr	-5886
isers	-5887
Number	-5888
▁incident	-5889
▁Harry	-5890
Property	-5891
fort	-5892
▁Spain	-5893
▁Hy	-5894
ewhere	-5895
EX	-5896
▁Instead	-5897
▁homes	-5898
akers	-5899
▁rules	-5900
▁agreement	-5901
▁finish	-5902
▁regarded	-5903
edd	-5904
▁Bul	-5905
Title	-5906
▁filmed	-5907
▁connected	-5908
86	-5909
▁Due	-5910
▁76	-5911
▁criticism	-5912
▁node	-5913
▁Lo	-5914
▁bodies	-5915
((	-5916
▁-->	-5917
▁throw	-5918
page	-5919
▁ast	-5920
▁Cy	-5921
▁suggests	-5922
▁Production	-5923
amm	-5924
▁decre	-5925
server	-5926
▁famous	-5927
▁effective	-5928
▁historical	-5929
▁Sand	-5930
▁Coast	-5931
▁See	-5932
▁Bu	-5933
▁56	-5934
▁entirely	-5935
onder	-5936
▁chair	-5937
AD	-5938
▁Bab	-5939
▁Board	-5940
▁describes	-5941
ENT	-5942
▁evac	-5943
▁strike	-5944
▁Bon	-5945
iling	-5946
▁Broad	-5947
▁<!--	-5948
Request	-5949
▁Mul	-5950
▁Child	-5951
▁register	-5952
▁sail	-5953
array	-5954
▁perman	-5955
anges	-5956
▁1939	-5957
▁wave	-5958
▁core	-5959
++)	-5960
Error	-5961
▁rejected	-5962
Test	-5963
ading	-5964
imation	-5965
▁Wild	-5966
▁killing	-5967
▁granted	-5968
Items	-5969
▁limit	-5970
nect	-5971
iana	-5972
▁disput	-5973
▁improved	-5974
▁applied	-5975
▁express	-5976
21	-5977
▁Ash	-5978
▁pet	-5979
lient	-5980
▁UN	-5981
edom	-5982
▁wa	-5983
▁tru	-5984
itter	-5985
orters	-5986
▁Album	-5987
▁worth	-5988
zil	-5989
▁Sund	-5990
abs	-5991
▁briefly	-5992
unic	-5993
▁disease	-5994
▁NULL	-5995
▁retired	-5996
Tr	-5997
▁generated	-5998
iments	-5999
▁determined	-6000
▁finds	-6001
ourney	-6002
ravity	-6003
mosp	-6004
▁Institute	-6005
▁Mir	-6006
▁Israel	-6007
GN	-6008
▁corner	-6009
▁narrow	-6010
▁Cub	-6011
▁Only	-6012
▁tower	-6013
▁arrang	-6014
Us	-6015
▁&&	-6016
object	-6017
iler	-6018
▁administration	-6019
apse	-6020
▁Never	-6021
▁personnel	-6022
▁41	-6023
▁1985	-6024
▁roads	-6025
▁Meanwhile	-6026
Info	-6027
▁1968	-6028
▁Arthur	-6029
▁Revolution	-6030
▁animation	-6031
▁extensive	-6032
inger	-6033
▁Base	-6034
▁armed	-6035
-8	-6036
▁inh	-6037
▁street	-6038
▁vo	-6039
▁Les	-6040
ishes	-6041
▁gross	-6042
Result	-6043
▁caught	-6044
▁dele	-6045
▁seat	-6046
inity	-6047
▁twelve	-6048
▁interchange	-6049
aine	-6050
▁Republican	-6051
▁Doctor	-6052
▁animal	-6053
▁Lind	-6054
▁doc	-6055
▁titles	-6056
▁Grid	-6057
Ser	-6058
▁landing	-6059
▁reading	-6060
▁kilometres	-6061
▁Hind	-6062
▁deleg	-6063
▁leadership	-6064
At	-6065
break	-6066
anes	-6067
emp	-6068
▁SELECT	-6069
The	-6070
avalry	-6071
▁Common	-6072
▁crossing	-6073
▁organized	-6074
▁aim	-6075
▁Ohio	-6076
▁psych	-6077
wall	-6078
bound	-6079
▁plants	-6080
▁Bell	-6081
▁mile	-6082
PA	-6083
▁infantry	-6084
▁inner	-6085
▁AD	-6086
▁250	-6087
Or	-6088
▁franch	-6089
▁43	-6090
▁solo	-6091
Up	-6092
cé	-6093
font	-6094
▁intellig	-6095
erved	-6096
▁vehicles	-6097
leep	-6098
▁axis	-6099
▁Ep	-6100
ario	-6101
▁controlled	-6102
▁Secretary	-6103
ocks	-6104
clipse	-6105
equ	-6106
▁sample	-6107
acter	-6108
adelph	-6109
▁Hit	-6110
itled	-6111
▁beaut	-6112
▁Jes	-6113
▁1984	-6114
▁chor	-6115
▁themes	-6116
▁Sher	-6117
▁roof	-6118
aching	-6119
▁sand	-6120
....	-6121
Page	-6122
▁explos	-6123
▁fought	-6124
▁consists	-6125
▁Georgia	-6126
▁acquired	-6127
▁surrender	-6128
▁Philadelph	-6129
▁Ron	-6130
oma	-6131
▁JS	-6132
acks	-6133
amin	-6134
▁Mos	-6135
▁starts	-6136
▁Project	-6137
water	-6138
append	-6139
▁SR	-6140
▁extrem	-6141
TA	-6142
tes	-6143
▁Ly	-6144
▁steam	-6145
▁commissioned	-6146
▁advantage	-6147
attle	-6148
▁Date	-6149
▁vertical	-6150
▁ancient	-6151
▁Harv	-6152
ooth	-6153
▁easy	-6154
▁convert	-6155
▁commonly	-6156
xx	-6157
▁Liver	-6158
▁empty	-6159
▁committee	-6160
▁clean	-6161
▁fresh	-6162
▁letters	-6163
Right	-6164
▁performing	-6165
▁Pass	-6166
▁Radio	-6167
▁regions	-6168
▁Elect	-6169
▁drama	-6170
▁uns	-6171
▁Gro	-6172
▁Cambridge	-6173
▁52	-6174
tra	-6175
▁category	-6176
▁sports	-6177
95	-6178
▁seventh	-6179
▁trav	-6180
▁Philadelphia	-6181
▁Office	-6182
▁comedy	-6183
▁nuclear	-6184
All	-6185
ora	-6186
▁Development	-6187
▁centuries	-6188
Select	-6189
▁advert	-6190
▁Prime	-6191
padding	-6192
▁depth	-6193
▁la	-6194
▁Mah	-6195
▁Turn	-6196
▁elimin	-6197
▁authorities	-6198
▁ones	-6199
▁depict	-6200
▁islands	-6201
▁reput	-6202
uan	-6203
▁Please	-6204
76	-6205
▁Wel	-6206
▁headquarters	-6207
8,	-6208
▁1967	-6209
▁receiving	-6210
▁Russia	-6211
▁charts	-6212
leton	-6213
▁genus	-6214
cts	-6215
▁Sup	-6216
▁acad	-6217
Child	-6218
85	-6219
▁Burn	-6220
▁sport	-6221
▁intersection	-6222
▁fish	-6223
Out	-6224
▁Among	-6225
▁users	-6226
▁standing	-6227
Scroll	-6228
restling	-6229
Ph	-6230
▁lic	-6231
▁families	-6232
oto	-6233
context	-6234
▁powers	-6235
▁perhaps	-6236
▁reflect	-6237
▁alternative	-6238
▁sites	-6239
▁analysis	-6240
▁Vol	-6241
▁cry	-6242
do	-6243
▁price	-6244
▁withdraw	-6245
▁Liverpool	-6246
▁Dim	-6247
▁dates	-6248
▁Nintend	-6249
▁turre	-6250
▁scheduled	-6251
ultural	-6252
▁cart	-6253
▁intensity	-6254
7,	-6255
▁Hu	-6256
ashion	-6257
Code	-6258
▁Java	-6259
▁Hay	-6260
▁Nintendo	-6261
▁Run	-6262
▁Ok	-6263
▁auto	-6264
▁People	-6265
System	-6266
onym	-6267
outs	-6268
▁unus	-6269
▁singing	-6270
▁Columbia	-6271
▁dedicated	-6272
▁references	-6273
▁orche	-6274
▁Wars	-6275
▁battalion	-6276
▁specim	-6277
▁purchased	-6278
▁push	-6279
▁root	-6280
▁filled	-6281
eline	-6282
▁motion	-6283
▁Dark	-6284
▁tail	-6285
▁defence	-6286
ceived	-6287
▁Prov	-6288
▁strik	-6289
▁cultural	-6290
▁Pot	-6291
▁Rol	-6292
▁Brazil	-6293
▁Row	-6294
▁Han	-6295
(0	-6296
▁Asia	-6297
Station	-6298
▁Korean	-6299
▁providing	-6300
▁dat	-6301
▁Lincol	-6302
▁Singap	-6303
▁contributed	-6304
Service	-6305
2"	-6306
▁demand	-6307
▁occupied	-6308
▁reasons	-6309
entially	-6310
▁younger	-6311
then	-6312
▁labor	-6313
▁sac	-6314
number	-6315
▁household	-6316
▁1983	-6317
▁arrival	-6318
▁Francisco	-6319
▁awards	-6320
▁flooding	-6321
▁atmosp	-6322
▁touchdown	-6323
▁structures	-6324
▁nob	-6325
▁rob	-6326
▁converted	-6327
Resource	-6328
▁Lieutenant	-6329
▁Ven	-6330
names	-6331
▁Win	-6332
▁arc	-6333
▁volume	-6334
▁accompanied	-6335
▁http	-6336
anging	-6337
▁closely	-6338
▁container	-6339
▁Bad	-6340
▁Jewish	-6341
▁philos	-6342
umer	-6343
header	-6344
▁package	-6345
▁Six	-6346
apes	-6347
▁focused	-6348
▁Singapore	-6349
▁defensive	-6350
orage	-6351
ursor	-6352
▁regarding	-6353
cript	-6354
▁Lis	-6355
▁ven	-6356
▁Well	-6357
▁supporting	-6358
utt	-6359
▁ceremony	-6360
DO	-6361
Rel	-6362
▁1964	-6363
▁Lincoln	-6364
▁impl	-6365
▁expedition	-6366
▁1969	-6367
▁survey	-6368
▁holding	-6369
asketball	-6370
▁np	-6371
▁Press	-6372
pected	-6373
▁mounted	-6374
any	-6375
etime	-6376
▁Try	-6377
▁experienced	-6378
isf	-6379
▁Carey	-6380
=0	-6381
▁ty	-6382
▁nor	-6383
run	-6384
▁Var	-6385
Em	-6386
greg	-6387
▁Sol	-6388
struct	-6389
▁Disney	-6390
▁ec	-6391
eger	-6392
▁1914	-6393
agan	-6394
▁expand	-6395
▁exactly	-6396
hat	-6397
▁Tam	-6398
▁Hun	-6399
▁1982	-6400
mann	-6401
▁firm	-6402
▁affect	-6403
rons	-6404
▁Gi	-6405
▁isn	-6406
ython	-6407
ping	-6408
▁difference	-6409
Main	-6410
▁Die	-6411
▁squad	-6412
ownt	-6413
▁HMS	-6414
▁mouth	-6415
▁1918	-6416
▁transfer	-6417
▁PlayStation	-6418
▁hidden	-6419
yer	-6420
base	-6421
▁Brook	-6422
BS	-6423
osa	-6424
igr	-6425
▁recognized	-6426
ications	-6427
▁Conference	-6428
rence	-6429
▁causes	-6430
▁eyes	-6431
▁hair	-6432
▁Steve	-6433
▁products	-6434
▁viewed	-6435
▁protection	-6436
Mode	-6437
itors	-6438
▁kick	-6439
▁combination	-6440
▁File	-6441
▁changing	-6442
▁facilities	-6443
▁functions	-6444
▁1971	-6445
▁folder	-6446
▁cool	-6447
▁egg	-6448
▁Miller	-6449
▁cricket	-6450
▁Balt	-6451
▁internal	-6452
▁transition	-6453
pers	-6454
▁Kel	-6455
9,	-6456
▁Kir	-6457
▁1966	-6458
▁Lewis	-6459
▁Anderson	-6460
▁Grant	-6461
▁sections	-6462
▁Byz	-6463
▁finding	-6464
schemas	-6465
▁1972	-6466
▁rise	-6467
▁industrial	-6468
iful	-6469
▁piano	-6470
arp	-6471
▁1979	-6472
▁questions	-6473
▁rated	-6474
▁circle	-6475
actions	-6476
▁gain	-6477
▁Review	-6478
▁temperature	-6479
▁aid	-6480
pg	-6481
▁Brian	-6482
▁Olympic	-6483
▁Bank	-6484
▁online	-6485
▁supposed	-6486
olean	-6487
▁exerc	-6488
Down	-6489
column	-6490
▁filter	-6491
standing	-6492
acc	-6493
▁opportunity	-6494
▁hyp	-6495
▁global	-6496
▁comic	-6497
▁Byzant	-6498
▁shooting	-6499
▁descend	-6500
using	-6501
▁secondary	-6502
▁escort	-6503
▁0)	-6504
spring	-6505
▁interp	-6506
▁Pict	-6507
▁joint	-6508
ographic	-6509
▁54	-6510
Binding	-6511
▁buttons	-6512
ua	-6513
Node	-6514
31	-6515
Rad	-6516
pective	-6517
ivalent	-6518
▁1965	-6519
▁Water	-6520
▁withd	-6521
etic	-6522
▁Down	-6523
▁boats	-6524
▁Railway	-6525
▁66	-6526
nce	-6527
izer	-6528
▁1975	-6529
▁agent	-6530
▁submar	-6531
▁semi	-6532
▁Every	-6533
▁knowledge	-6534
Tab	-6535
encies	-6536
▁1)	-6537
Start	-6538
▁improve	-6539
awa	-6540
▁51	-6541
▁NHL	-6542
========	-6543
▁Emperor	-6544
▁saved	-6545
▁animated	-6546
Is	-6547
▁motor	-6548
▁aware	-6549
▁shark	-6550
My	-6551
aver	-6552
real	-6553
▁engaged	-6554
▁switch	-6555
ilton	-6556
▁Special	-6557
▁prepared	-6558
essed	-6559
zen	-6560
ername	-6561
▁conference	-6562
ogg	-6563
▁notable	-6564
▁Build	-6565
▁please	-6566
▁Jr	-6567
▁160	-6568
▁dry	-6569
▁Between	-6570
▁Gulf	-6571
▁stret	-6572
▁Summer	-6573
▁outer	-6574
opher	-6575
rete	-6576
raphics	-6577
▁digital	-6578
Instance	-6579
eral	-6580
▁trains	-6581
▁resident	-6582
▁merch	-6583
unnel	-6584
▁hired	-6585
▁Germans	-6586
ientation	-6587
▁distribution	-6588
▁Hollywood	-6589
ali	-6590
▁appropri	-6591
▁Walter	-6592
▁Ken	-6593
▁Davis	-6594
▁proced	-6595
▁rapidly	-6596
unior	-6597
▁isol	-6598
▁posted	-6599
▁mountain	-6600
▁Wat	-6601
▁1974	-6602
Inter	-6603
▁painting	-6604
▁roughly	-6605
Component	-6606
gest	-6607
▁southeast	-6608
burgh	-6609
From	-6610
96	-6611
mat	-6612
▁Fall	-6613
▁opinion	-6614
▁Democratic	-6615
CL	-6616
▁publication	-6617
▁shall	-6618
itche	-6619
gun	-6620
▁occurs	-6621
▁Gib	-6622
▁significantly	-6623
▁steel	-6624
▁Found	-6625
▁approved	-6626
heim	-6627
▁1973	-6628
etts	-6629
Stream	-6630
▁moder	-6631
RI	-6632
▁sun	-6633
othing	-6634
otic	-6635
orough	-6636
▁Serb	-6637
▁lb	-6638
unte	-6639
ships	-6640
End	-6641
▁client	-6642
xis	-6643
▁reaction	-6644
ashed	-6645
▁styles	-6646
▁$("	-6647
▁knew	-6648
▁casualties	-6649
▁Plan	-6650
asure	-6651
▁technology	-6652
▁Jean	-6653
ello	-6654
sey	-6655
▁Beyon	-6656
PO	-6657
▁1976	-6658
▁economy	-6659
Che	-6660
▁cars	-6661
▁segment	-6662
▁Daily	-6663
▁unsuccess	-6664
▁von	-6665
▁Rome	-6666
aka	-6667
▁disapp	-6668
":"	-6669
▁poll	-6670
▁hydro	-6671
▁maintain	-6672
▁58	-6673
▁Stand	-6674
▁handle	-6675
void	-6676
▁substant	-6677
version	-6678
▁proceed	-6679
▁bands	-6680
▁reduce	-6681
▁daily	-6682
▁resources	-6683
▁ton	-6684
▁Lady	-6685
inking	-6686
▁ago	-6687
▁belief	-6688
▁losses	-6689
math	-6690
▁Cop	-6691
▁screenshot	-6692
PE	-6693
▁contest	-6694
Comm	-6695
▁Gord	-6696
▁pretty	-6697
▁Lab	-6698
▁+=	-6699
theless	-6700
GL	-6701
▁Ten	-6702
▁pitch	-6703
▁dimension	-6704
▁literature	-6705
Format	-6706
kit	-6707
▁Station	-6708
asty	-6709
▁myth	-6710
▁flu	-6711
model	-6712
▁specifically	-6713
▁witness	-6714
▁Jenn	-6715
▁renamed	-6716
▁distingu	-6717
▁auth	-6718
▁Women	-6719
▁heads	-6720
ologist	-6721
▁interested	-6722
▁Str	-6723
▁('	-6724
▁pros	-6725
▁Sel	-6726
55	-6727
▁700	-6728
▁Naz	-6729
friend	-6730
▁absolute	-6731
▁drawing	-6732
pack	-6733
ko	-6734
▁About	-6735
▁simpl	-6736
▁component	-6737
▁Studio	-6738
▁franchise	-6739
unc	-6740
▁correctly	-6741
▁'.	-6742
▁IV	-6743
▁Inc	-6744
actory	-6745
De	-6746
▁advent	-6747
achus	-6748
▁composition	-6749
▁57	-6750
▁Syd	-6751
▁Beyoncé	-6752
▁southwest	-6753
▁rand	-6754
▁layer	-6755
Pane	-6756
▁lap	-6757
▁Indust	-6758
▁actress	-6759
iest	-6760
▁urban	-6761
da	-6762
▁ce	-6763
ugin	-6764
▁Plot	-6765
▁brand	-6766
▁watched	-6767
▁Value	-6768
▁planning	-6769
▁consequ	-6770
▁turning	-6771
▁windows	-6772
▁tall	-6773
▁alert	-6774
▁shaped	-6775
▁resistance	-6776
▁span	-6777
ocated	-6778
oom	-6779
▁Ball	-6780
▁gameplay	-6781
▁pan	-6782
▁trip	-6783
▁operating	-6784
▁reputation	-6785
TO	-6786
▁Fair	-6787
▁flat	-6788
▁drew	-6789
▁brothers	-6790
▁Colonel	-6791
▁accompl	-6792
:\	-6793
▁tank	-6794
▁fashion	-6795
▁Bern	-6796
▁employed	-6797
Check	-6798
▁Supreme	-6799
Parent	-6800
▁engin	-6801
▁solve	-6802
▁storyline	-6803
Aut	-6804
va	-6805
oir	-6806
ses	-6807
▁programs	-6808
▁stages	-6809
ella	-6810
Be	-6811
▁1917	-6812
▁1946	-6813
▁1981	-6814
▁Independ	-6815
▁warning	-6816
▁Kentucky	-6817
▁collected	-6818
▁Mas	-6819
plete	-6820
▁injured	-6821
▁Bal	-6822
▁1;	-6823
Fl	-6824
▁lov	-6825
▁popularity	-6826
▁cold	-6827
▁stopped	-6828
▁succeeded	-6829
▁hits	-6830
▁towns	-6831
emble	-6832
osl	-6833
▁sam	-6834
▁Prem	-6835
axis	-6836
▁nick	-6837
athan	-6838
▁−	-6839
▁learned	-6840
osis	-6841
▁Offic	-6842
▁estate	-6843
▁enjoyed	-6844
ja	-6845
uzz	-6846
▁van	-6847
▁Nick	-6848
▁Walk	-6849
current	-6850
▁declined	-6851
esh	-6852
▁owner	-6853
▁Norway	-6854
▁routes	-6855
▁Array	-6856
ati	-6857
Build	-6858
▁undert	-6859
-1	-6860
ipping	-6861
▁Theat	-6862
▁otherwise	-6863
▁exchange	-6864
race	-6865
▁retire	-6866
▁agric	-6867
▁museum	-6868
ira	-6869
▁journey	-6870
Dialog	-6871
po	-6872
▁cab	-6873
▁poem	-6874
▁Olympics	-6875
ulpt	-6876
UN	-6877
▁Dream	-6878
▁Golden	-6879
▁assert	-6880
▁Massachus	-6881
▁SQL	-6882
▁Po	-6883
▁trust	-6884
▁headed	-6885
▁determine	-6886
UE	-6887
▁producing	-6888
▁existence	-6889
▁Massachusetts	-6890
izations	-6891
▁increasingly	-6892
▁cited	-6893
▁responded	-6894
ads	-6895
▁2,	-6896
pir	-6897
▁AND	-6898
▁Code	-6899
ocket	-6900
án	-6901
▁Abb	-6902
onia	-6903
rees	-6904
▁scholar	-6905
Client	-6906
▁Airport	-6907
([	-6908
ogue	-6909
aug	-6910
▁Rand	-6911
▁expression	-6912
▁99	-6913
▁approached	-6914
▁safety	-6915
Input	-6916
▁Hart	-6917
hr	-6918
aks	-6919
▁Engine	-6920
▁arranged	-6921
▁WHERE	-6922
▁stadium	-6923
▁wealth	-6924
▁indicated	-6925
[0]	-6926
▁Imp	-6927
rog	-6928
apped	-6929
iminal	-6930
▁Ice	-6931
▁phase	-6932
▁introduction	-6933
config	-6934
ircle	-6935
▁completion	-6936
▁extremely	-6937
istan	-6938
▁1948	-6939
▁occas	-6940
Background	-6941
lik	-6942
▁harm	-6943
▁comments	-6944
▁Ross	-6945
▁accur	-6946
AN	-6947
ilation	-6948
psons	-6949
▁recommend	-6950
▁constitution	-6951
sk	-6952
▁Earl	-6953
core	-6954
▁crash	-6955
Border	-6956
▁jump	-6957
"),	-6958
▁bed	-6959
reated	-6960
▁promotion	-6961
▁Last	-6962
apel	-6963
▁candidate	-6964
▁59	-6965
ragon	-6966
▁Simpsons	-6967
txt	-6968
▁Power	-6969
▁1978	-6970
▁equivalent	-6971
▁sustained	-6972
iques	-6973
▁Songs	-6974
▁designs	-6975
▁retained	-6976
onds	-6977
▁carrying	-6978
▁Who	-6979
CG	-6980
ictionary	-6981
▁recommended	-6982
▁McG	-6983
▁humans	-6984
▁baseball	-6985
▁buried	-6986
▁exclus	-6987
▁greatly	-6988
▁glass	-6989
▁secure	-6990
▁96	-6991
▁CO	-6992
▁pix	-6993
▁Prof	-6994
ags	-6995
▁earliest	-6996
▁react	-6997
▁writes	-6998
▁Imperial	-6999
▁neut	-7000
▁youth	-7001
▁Vietnam	-7002
▁credited	-7003
▁downt	-7004
iger	-7005
▁confront	-7006
BN	-7007
▁battery	-7008
Filter	-7009
▁labels	-7010
▁Jay	-7011
▁1977	-7012
othes	-7013
▁disappe	-7014
▁Cape	-7015
▁intent	-7016
▁Ottoman	-7017
▁genre	-7018
▁Band	-7019
illing	-7020
▁testing	-7021
▁scientific	-7022
rl	-7023
▁Shortly	-7024
▁weakened	-7025
ker	-7026
▁assistant	-7027
▁Moore	-7028
▁1915	-7029
▁Poland	-7030
▁flo	-7031
▁athlet	-7032
▁Sa	-7033
aked	-7034
▁looked	-7035
▁Sydney	-7036
▁lasted	-7037
▁4.	-7038
ador	-7039
▁acts	-7040
Position	-7041
89	-7042
▁freeway	-7043
▁Age	-7044
▁lands	-7045
▁Roy	-7046
▁Maryland	-7047
▁Ka	-7048
▁ban	-7049
▁landfall	-7050
▁acres	-7051
▁reserve	-7052
▁ON	-7053
▁Stew	-7054
strap	-7055
▁Greg	-7056
(){	-7057
▁Story	-7058
▁laws	-7059
issance	-7060
Font	-7061
▁appreciated	-7062
▁Naval	-7063
▁upgrad	-7064
▁MTV	-7065
Range	-7066
ampions	-7067
▁delivered	-7068
hens	-7069
▁modified	-7070
▁130	-7071
▁Edu	-7072
ED	-7073
nings	-7074
▁oppos	-7075
eless	-7076
▁gall	-7077
▁stock	-7078
▁ul	-7079
▁Arts	-7080
▁gradually	-7081
gency	-7082
oes	-7083
▁sufficient	-7084
ingly	-7085
▁Media	-7086
▁engines	-7087
▁apply	-7088
▁playoff	-7089
▁trig	-7090
inder	-7091
▁entrance	-7092
ano	-7093
iege	-7094
▁1963	-7095
▁Prin	-7096
fire	-7097
ootstrap	-7098
▁violence	-7099
insula	-7100
▁coastal	-7101
undle	-7102
▁domestic	-7103
▁53	-7104
null	-7105
display	-7106
emies	-7107
phone	-7108
rett	-7109
Alignment	-7110
"))	-7111
eper	-7112
▁preced	-7113
hi	-7114
aes	-7115
uting	-7116
border	-7117
▁quant	-7118
▁Az	-7119
▁sculpt	-7120
▁seeing	-7121
▁Android	-7122
irt	-7123
▁Kim	-7124
inton	-7125
▁tact	-7126
strong	-7127
▁politics	-7128
▁1916	-7129
▁Univers	-7130
lets	-7131
▁apart	-7132
▁colors	-7133
▁Type	-7134
▁subt	-7135
bell	-7136
▁UTC	-7137
Edit	-7138
▁independence	-7139
▁driver	-7140
▁fly	-7141
▁supplies	-7142
▁cinem	-7143
42	-7144
▁graphics	-7145
cat	-7146
▁Cat	-7147
▁Mulder	-7148
▁Confeder	-7149
▁Space	-7150
▁Staff	-7151
▁moves	-7152
▁parties	-7153
▁110	-7154
▁Moon	-7155
79	-7156
▁()	-7157
▁thread	-7158
▁teacher	-7159
▁offers	-7160
radius	-7161
▁males	-7162
▁Gordon	-7163
▁adapted	-7164
▁vary	-7165
▁investigation	-7166
float	-7167
obe	-7168
▁bought	-7169
▁Video	-7170
▁})	-7171
orporation	-7172
▁%>	-7173
▁Stadium	-7174
▁zone	-7175
▁manner	-7176
▁Constant	-7177
erior	-7178
▁parallel	-7179
▁prisoners	-7180
▁appeal	-7181
▁campus	-7182
▁1919	-7183
▁winner	-7184
▁identity	-7185
▁1962	-7186
▁entitled	-7187
▁Rhodes	-7188
ImageView	-7189
IV	-7190
▁inher	-7191
▁explain	-7192
▁ha	-7193
▁Cart	-7194
okes	-7195
▁controls	-7196
inois	-7197
▁ready	-7198
iversary	-7199
Collection	-7200
▁survived	-7201
▁tal	-7202
▁capable	-7203
ropol	-7204
▁decade	-7205
********	-7206
▁proposal	-7207
▁evening	-7208
scape	-7209
Header	-7210
▁Bir	-7211
▁sell	-7212
▁studied	-7213
▁Theatre	-7214
IC	-7215
chers	-7216
include	-7217
▁Alan	-7218
▁Bowl	-7219
▁ensure	-7220
▁fear	-7221
▁permission	-7222
▁relief	-7223
▁Philip	-7224
▁deaths	-7225
▁1938	-7226
▁regiment	-7227
first	-7228
▁knots	-7229
▁typical	-7230
uster	-7231
ighters	-7232
As	-7233
▁threatened	-7234
itmap	-7235
Location	-7236
oli	-7237
olve	-7238
▁door	-7239
vest	-7240
▁Anth	-7241
▁Vill	-7242
▁errors	-7243
dat	-7244
▁bom	-7245
▁inspir	-7246
▁Meg	-7247
▁Whit	-7248
▁ruled	-7249
▁voted	-7250
aret	-7251
▁spons	-7252
▁flex	-7253
▁Mic	-7254
AC	-7255
▁Philipp	-7256
▁Action	-7257
▁meters	-7258
▁Justice	-7259
▁remember	-7260
▁constant	-7261
▁Today	-7262
▁principal	-7263
endar	-7264
▁browser	-7265
▁composer	-7266
▁ru	-7267
▁infl	-7268
pace	-7269
▁rac	-7270
ician	-7271
ViewById	-7272
▁random	-7273
Selected	-7274
▁religion	-7275
▁remainder	-7276
▁concerns	-7277
▁fict	-7278
▁soul	-7279
▁revolution	-7280
json	-7281
ieval	-7282
▁detail	-7283
.0,	-7284
hent	-7285
▁entering	-7286
ools	-7287
▁Cra	-7288
▁crown	-7289
MP	-7290
▁effic	-7291
▁duty	-7292
▁kingdom	-7293
▁importance	-7294
Rec	-7295
▁crossed	-7296
▁Property	-7297
▁recalled	-7298
▁Gen	-7299
phoon	-7300
▁Note	-7301
▁alle	-7302
▁convin	-7303
▁portrayed	-7304
drop	-7305
ormal	-7306
bourne	-7307
widget	-7308
ersion	-7309
▁Tony	-7310
▁magn	-7311
cement	-7312
▁obtained	-7313
▁die	-7314
▁Table	-7315
▁argument	-7316
▁consisting	-7317
▁controversy	-7318
rell	-7319
▁Memorial	-7320
▁possibility	-7321
ridges	-7322
ervative	-7323
▁Ari	-7324
▁detect	-7325
▁micro	-7326
ubb	-7327
▁examples	-7328
ln	-7329
▁1956	-7330
▁breeding	-7331
▁derived	-7332
pop	-7333
▁opera	-7334
ativeLayout	-7335
▁align	-7336
▁skin	-7337
pet	-7338
▁Kong	-7339
▁vent	-7340
product	-7341
▁Hamilton	-7342
ela	-7343
aste	-7344
wick	-7345
▁enl	-7346
▁shel	-7347
▁Category	-7348
lend	-7349
▁IGN	-7350
▁tanks	-7351
Ap	-7352
▁df	-7353
(1	-7354
▁FA	-7355
▁Nel	-7356
▁pure	-7357
▁admitted	-7358
▁McK	-7359
▁nest	-7360
▁Singles	-7361
senal	-7362
▁Alf	-7363
RL	-7364
aki	-7365
Handler	-7366
▁properly	-7367
bro	-7368
▁Dig	-7369
▁driving	-7370
ategories	-7371
▁Critical	-7372
where	-7373
▁Adams	-7374
▁User	-7375
▁mort	-7376
▁Adam	-7377
▁Master	-7378
▁Director	-7379
▁il	-7380
olars	-7381
▁Jord	-7382
▁missed	-7383
▁arrested	-7384
▁challenge	-7385
▁nomination	-7386
▁angle	-7387
▁Beach	-7388
ipated	-7389
otes	-7390
Param	-7391
vements	-7392
▁canvas	-7393
▁department	-7394
▁1936	-7395
▁Gram	-7396
gor	-7397
▁Dougl	-7398
▁invited	-7399
▁Assembly	-7400
▁Simon	-7401
▁equipped	-7402
65	-7403
ansas	-7404
▁Maria	-7405
▁tables	-7406
mary	-7407
▁applic	-7408
▁crime	-7409
hetic	-7410
mun	-7411
▁blow	-7412
elta	-7413
▁geom	-7414
▁Forest	-7415
▁assumed	-7416
iy	-7417
New	-7418
otype	-7419
▁acid	-7420
ranean	-7421
▁executed	-7422
jpg	-7423
oys	-7424
▁choose	-7425
apache	-7426
▁requested	-7427
ione	-7428
▁concerned	-7429
UP	-7430
▁Jane	-7431
property	-7432
▁Sunday	-7433
▁promote	-7434
▁charged	-7435
pread	-7436
▁Death	-7437
▁purchase	-7438
[1]	-7439
▁medal	-7440
▁Sav	-7441
▁priv	-7442
src	-7443
▁rich	-7444
idespread	-7445
oly	-7446
▁VII	-7447
Changed	-7448
▁describing	-7449
▁hosted	-7450
▁sounds	-7451
▁decor	-7452
▁funds	-7453
▁1961	-7454
US	-7455
▁cloud	-7456
▁dens	-7457
▁aspects	-7458
▁settings	-7459
▁females	-7460
▁snow	-7461
▁sole	-7462
▁slowly	-7463
▁generation	-7464
▁considerable	-7465
hedral	-7466
iley	-7467
build	-7468
▁Disc	-7469
uts	-7470
iders	-7471
▁Transport	-7472
fe	-7473
▁Object	-7474
▁hotel	-7475
▁separated	-7476
▁stack	-7477
▁permanent	-7478
▁behavi	-7479
▁Indones	-7480
▁Ur	-7481
eman	-7482
▁Nether	-7483
▁NBA	-7484
▁navigation	-7485
▁linked	-7486
43	-7487
▁ham	-7488
evin	-7489
▁Nap	-7490
▁Using	-7491
▁penal	-7492
▁restaur	-7493
ester	-7494
▁1953	-7495
▁78	-7496
▁dated	-7497
▁edit	-7498
har	-7499
▁evolution	-7500
▁publish	-7501
▁strongly	-7502
▁mouse	-7503
▁Kennedy	-7504
https	-7505
▁Third	-7506
▁circum	-7507
hus	-7508
unes	-7509
▁Low	-7510
aware	-7511
▁duties	-7512
▁attempting	-7513
▁sessions	-7514
sum	-7515
▁Pit	-7516
organ	-7517
▁Additionally	-7518
▁Bos	-7519
▁noting	-7520
▁Bush	-7521
cious	-7522
▁grounds	-7523
▁differences	-7524
▁Leon	-7525
nic	-7526
▁Howard	-7527
▁eighth	-7528
▁Design	-7529
je	-7530
▁decades	-7531
don	-7532
▁Hou	-7533
ensus	-7534
▁tele	-7535
▁rural	-7536
▁denied	-7537
▁Military	-7538
▁plane	-7539
▁involving	-7540
▁lane	-7541
▁income	-7542
▁Indiana	-7543
1;	-7544
rait	-7545
▁sed	-7546
cknow	-7547
▁opposite	-7548
▁Norwe	-7549
aft	-7550
car	-7551
Connection	-7552
▁milit	-7553
▁committed	-7554
ca	-7555
osaurus	-7556
▁TH	-7557
enses	-7558
cation	-7559
▁Scully	-7560
▁shop	-7561
UM	-7562
▁Sus	-7563
▁Five	-7564
▁Science	-7565
▁neither	-7566
▁Bry	-7567
▁factor	-7568
TP	-7569
▁Research	-7570
▁thousands	-7571
▁tests	-7572
ipl	-7573
▁Ast	-7574
▁enemies	-7575
len	-7576
avax	-7577
▁Fle	-7578
▁Hitler	-7579
▁06	-7580
▁brigade	-7581
▁aer	-7582
hell	-7583
▁1947	-7584
▁Portug	-7585
ige	-7586
▁recognition	-7587
▁API	-7588
▁Ha	-7589
▁1958	-7590
▁volcan	-7591
▁breaking	-7592
▁Gill	-7593
▁shif	-7594
▁depos	-7595
aren	-7596
▁Turk	-7597
▁pages	-7598
md	-7599
uls	-7600
hered	-7601
▁channel	-7602
▁\	-7603
Mod	-7604
▁Call	-7605
▁Similar	-7606
erto	-7607
▁Yank	-7608
lisher	-7609
▁68	-7610
▁constra	-7611
▁Brist	-7612
ync	-7613
▁WWE	-7614
ommod	-7615
▁vessels	-7616
agues	-7617
▁heat	-7618
▁formal	-7619
veland	-7620
achment	-7621
▁supporters	-7622
▁Ryan	-7623
ivals	-7624
▁Within	-7625
▁settled	-7626
▁Mountain	-7627
▁effectively	-7628
▁1910	-7629
▁Math	-7630
▁1957	-7631
▁replacement	-7632
rot	-7633
▁Nic	-7634
▁Mexican	-7635
▁Ak	-7636
images	-7637
▁oldest	-7638
AAF	-7639
Make	-7640
▁Hug	-7641
▁Next	-7642
▁tries	-7643
regon	-7644
▁dress	-7645
mouth	-7646
▁cann	-7647
▁Use	-7648
▁Button	-7649
▁Argent	-7650
▁1937	-7651
▁tool	-7652
▁debate	-7653
ewhat	-7654
▁departure	-7655
▁vide	-7656
▁Magazine	-7657
▁Channel	-7658
▁Rolling	-7659
▁faith	-7660
▁assistance	-7661
Script	-7662
▁sequel	-7663
▁Constitution	-7664
info	-7665
ifact	-7666
umin	-7667
vant	-7668
▁architecture	-7669
▁parliament	-7670
▁Kr	-7671
worth	-7672
▁minimum	-7673
▁decline	-7674
7.	-7675
▁Bah	-7676
▁Rose	-7677
▁Weekly	-7678
▁songwrit	-7679
risis	-7680
▁disappoint	-7681
ez	-7682
▁folk	-7683
▁feeling	-7684
▁Kat	-7685
▁intention	-7686
▁widespread	-7687
▁phone	-7688
▁patrol	-7689
▁Cleveland	-7690
Pre	-7691
▁torn	-7692
Config	-7693
▁Hand	-7694
▁generate	-7695
'),	-7696
▁Illinois	-7697
▁acknow	-7698
▁temporary	-7699
▁shr	-7700
▁Pier	-7701
wan	-7702
TH	-7703
▁adjust	-7704
▁swim	-7705
▁Treat	-7706
▁Douglas	-7707
▁Throughout	-7708
▁Pear	-7709
Options	-7710
raction	-7711
▁seemed	-7712
▁certified	-7713
▁cancell	-7714
orney	-7715
atever	-7716
onto	-7717
▁memorial	-7718
num	-7719
▁Buff	-7720
heastern	-7721
▁accused	-7722
▁Andy	-7723
▁gone	-7724
3)	-7725
▁drug	-7726
▁interpret	-7727
▁raise	-7728
Factory	-7729
▁Family	-7730
bean	-7731
▁Lenn	-7732
reck	-7733
▁Nar	-7734
▁Jordan	-7735
acle	-7736
last	-7737
acent	-7738
▁holds	-7739
▁negoti	-7740
▁warm	-7741
▁Again	-7742
western	-7743
lam	-7744
unch	-7745
▁shots	-7746
▁wearing	-7747
▁association	-7748
No	-7749
uming	-7750
▁Oregon	-7751
▁tied	-7752
▁citizens	-7753
.0.	-7754
▁1959	-7755
▁ri	-7756
▁crop	-7757
▁Freder	-7758
▁09	-7759
open	-7760
▁Dub	-7761
rush	-7762
▁ISBN	-7763
▁armor	-7764
▁charges	-7765
idge	-7766
▁Cab	-7767
setText	-7768
▁Stanley	-7769
▁($	-7770
▁regional	-7771
coming	-7772
▁valley	-7773
▁acclaim	-7774
▁FI	-7775
ogen	-7776
▁Feder	-7777
▁Recording	-7778
▁Kevin	-7779
agonist	-7780
ffect	-7781
▁”	-7782
unny	-7783
lab	-7784
▁Arsenal	-7785
iat	-7786
▁Bol	-7787
▁learn	-7788
▁foss	-7789
▁Bruce	-7790
▁populations	-7791
▁69	-7792
▁stuff	-7793
▁somewhat	-7794
▁classic	-7795
iterranean	-7796
orders	-7797
▁advice	-7798
▁Roger	-7799
▁accounts	-7800
▁Tenn	-7801
▁temple	-7802
achel	-7803
ented	-7804
▁speaking	-7805
▁champion	-7806
▁Thus	-7807
▁facing	-7808
▁?>	-7809
▁helps	-7810
▁Beatles	-7811
▁literary	-7812
▁depending	-7813
opy	-7814
▁Norwegian	-7815
power	-7816
with	-7817
▁Start	-7818
▁Mediterranean	-7819
▁Why	-7820
local	-7821
▁costs	-7822
▁1954	-7823
▁Return	-7824
vertical	-7825
▁1955	-7826
ending	-7827
▁terminus	-7828
▁fruit	-7829
▁08	-7830
▁79	-7831
▁Ira	-7832
▁wickets	-7833
iller	-7834
ji	-7835
Stack	-7836
▁Prior	-7837
▁Bristol	-7838
▁freedom	-7839
▁77	-7840
▁Techn	-7841
▁resemb	-7842
▁learning	-7843
google	-7844
untime	-7845
dule	-7846
▁“	-7847
ernal	-7848
ami	-7849
▁vac	-7850
▁bringing	-7851
▁scheme	-7852
▁attributed	-7853
5.	-7854
▁Sab	-7855
emed	-7856
▁Pur	-7857
▁obvious	-7858
▁Hope	-7859
▁unusual	-7860
▁serves	-7861
ito	-7862
▁stream	-7863
▁thirty	-7864
▁spin	-7865
orig	-7866
▁fictional	-7867
wing	-7868
▁Mot	-7869
▁JO	-7870
▁passengers	-7871
▁intelligence	-7872
▁Library	-7873
oral	-7874
▁circulation	-7875
▁Ho	-7876
▁Est	-7877
▁begun	-7878
▁strip	-7879
isms	-7880
▁grey	-7881
▁88	-7882
▁hill	-7883
▁sailed	-7884
imb	-7885
▁67	-7886
▁finishing	-7887
▁Network	-7888
▁Sky	-7889
▁surpr	-7890
▁img	-7891
anga	-7892
▁minister	-7893
▁difficulty	-7894
▁downtown	-7895
▁components	-7896
▁Federal	-7897
from	-7898
▁steps	-7899
▁98	-7900
▁driven	-7901
Custom	-7902
▁Korea	-7903
pic	-7904
▁mask	-7905
Thread	-7906
▁btn	-7907
rm	-7908
oded	-7909
ternal	-7910
▁ancest	-7911
▁<<	-7912
▁attribute	-7913
BI	-7914
▁everyone	-7915
▁×	-7916
▁hip	-7917
▁destruction	-7918
aire	-7919
▁72	-7920
atinum	-7921
▁appearing	-7922
oting	-7923
▁volunte	-7924
▁Conc	-7925
▁commanded	-7926
▁serial	-7927
utor	-7928
▁Create	-7929
orer	-7930
rapper	-7931
▁accommod	-7932
▁criminal	-7933
▁vehicle	-7934
▁missions	-7935
▁occasionally	-7936
▁ray	-7937
holder	-7938
▁incorporated	-7939
▁Rain	-7940
▁db	-7941
stract	-7942
▁neighbor	-7943
▁technical	-7944
mes	-7945
▁stayed	-7946
formation	-7947
▁strengthen	-7948
▁bra	-7949
)'	-7950
▁discussion	-7951
yy	-7952
▁desire	-7953
▁materials	-7954
▁recovered	-7955
▁Lisa	-7956
▁Free	-7957
▁Morris	-7958
▁Na	-7959
▁Ever	-7960
▁regularly	-7961
Ident	-7962
▁Fame	-7963
▁alleged	-7964
1/	-7965
aza	-7966
OK	-7967
▁dipl	-7968
▁Unlike	-7969
▁reality	-7970
▁sons	-7971
▁demol	-7972
tab	-7973
tableView	-7974
▁strategy	-7975
▁responsibility	-7976
olec	-7977
▁Tar	-7978
borne	-7979
▁rooms	-7980
▁atmosphere	-7981
▁emerged	-7982
▁Phill	-7983
▁1000	-7984
▁Look	-7985
▁Morgan	-7986
▁1952	-7987
edia	-7988
▁hal	-7989
▁brain	-7990
iva	-7991
▁uniform	-7992
default	-7993
▁Scient	-7994
▁votes	-7995
▁theatre	-7996
▁keyboard	-7997
burn	-7998
▁Norman	-7999
▁chorus	-8000
rant	-8001
▁Hawai	-8002
▁Pow	-8003
▁prey	-8004
ophy	-8005
▁Whe	-8006
▁Robinson	-8007
▁Raj	-8008
going	-8009
ToString	-8010
▁divisions	-8011
aph	-8012
rane	-8013
▁Front	-8014
▁classification	-8015
▁Sn	-8016
▁Iron	-8017
▁Profess	-8018
▁62	-8019
▁87	-8020
AP	-8021
▁dream	-8022
AB	-8023
anner	-8024
:[	-8025
wen	-8026
▁audio	-8027
▁cavalry	-8028
▁classified	-8029
▁establishment	-8030
▁normally	-8031
▁Ru	-8032
▁Chron	-8033
▁Around	-8034
▁q	-8035
▁Ba	-8036
▁Construction	-8037
▁union	-8038
▁divers	-8039
▁1933	-8040
▁Television	-8041
▁Box	-8042
▁suit	-8043
▁shore	-8044
▁passage	-8045
▁ratings	-8046
▁900	-8047
oslav	-8048
Off	-8049
control	-8050
activity	-8051
▁Marg	-8052
▁fer	-8053
▁province	-8054
▁100%;	-8055
▁entertain	-8056
▁lists	-8057
▁purpos	-8058
nold	-8059
▁happened	-8060
▁attracted	-8061
OL	-8062
▁surviving	-8063
riers	-8064
▁persu	-8065
lyn	-8066
▁anch	-8067
▁invent	-8068
▁BY	-8069
▁Coll	-8070
▁Eric	-8071
▁Apple	-8072
▁Nelson	-8073
▁Ford	-8074
dden	-8075
hand	-8076
Chart	-8077
▁Nich	-8078
▁Francis	-8079
▁useful	-8080
param	-8081
▁Sweden	-8082
▁Budd	-8083
▁incom	-8084
▁Premier	-8085
▁representing	-8086
ais	-8087
▁1935	-8088
▁lies	-8089
▁clubs	-8090
▁leads	-8091
(1,	-8092
abil	-8093
agle	-8094
▁climate	-8095
oyd	-8096
isp	-8097
iliar	-8098
▁$('#	-8099
▁Deb	-8100
▁consult	-8101
▁aboard	-8102
▁stands	-8103
▁cruiser	-8104
atern	-8105
formula	-8106
▁Temple	-8107
1_	-8108
▁gal	-8109
▁Patrick	-8110
Method	-8111
▁eleven	-8112
▁predecess	-8113
▁movements	-8114
▁175	-8115
▁export	-8116
▁Journal	-8117
▁restored	-8118
ilers	-8119
▁1949	-8120
▁exit	-8121
▁cycle	-8122
▁MS	-8123
▁eru	-8124
▁gray	-8125
▁hoped	-8126
▁illeg	-8127
▁1951	-8128
▁stood	-8129
▁mine	-8130
▁rose	-8131
▁chemical	-8132
▁understanding	-8133
wich	-8134
▁cul	-8135
▁Welsh	-8136
▁Toronto	-8137
XX	-8138
▁Are	-8139
exual	-8140
▁surrounded	-8141
={	-8142
▁techniques	-8143
▁Allen	-8144
ulating	-8145
▁matrix	-8146
▁outbreak	-8147
Status	-8148
▁Nations	-8149
archy	-8150
Not	-8151
▁61	-8152
document	-8153
▁worst	-8154
▁Byzantine	-8155
▁Netherlands	-8156
▁hear	-8157
teenth	-8158
dy	-8159
Mat	-8160
▁battleships	-8161
▁lit	-8162
▁Dick	-8163
ogy	-8164
▁Wy	-8165
▁pointed	-8166
▁stored	-8167
OC	-8168
="1"	-8169
illed	-8170
▁1900	-8171
▁css	-8172
▁bright	-8173
▁delayed	-8174
▁sale	-8175
▁deployed	-8176
▁communities	-8177
IF	-8178
Vert	-8179
▁massive	-8180
▁immediate	-8181
▁inspiration	-8182
▁Google	-8183
▁discovery	-8184
▁basketball	-8185
oster	-8186
▁Matthew	-8187
▁PC	-8188
▁kid	-8189
▁historians	-8190
▁Microsoft	-8191
vection	-8192
▁Cry	-8193
aired	-8194
▁programme	-8195
Work	-8196
▁Belg	-8197
▁:=	-8198
▁Os	-8199
▁partner	-8200
▁crosses	-8201
ructure	-8202
▁Bang	-8203
ón	-8204
▁Domin	-8205
Args	-8206
▁closer	-8207
▁convent	-8208
▁relationships	-8209
eor	-8210
▁weapon	-8211
▁Files	-8212
▁Sax	-8213
▁afterwards	-8214
anth	-8215
▁Dean	-8216
▁penalty	-8217
▁apparently	-8218
coh	-8219
▁teen	-8220
▁premiere	-8221
▁forming	-8222
00,	-8223
▁Jews	-8224
rum	-8225
▁notice	-8226
▁Cur	-8227
▁Jacob	-8228
▁millim	-8229
▁reserv	-8230
nie	-8231
jection	-8232
▁USS	-8233
▁86	-8234
▁flank	-8235
▁bug	-8236
▁anniversary	-8237
case	-8238
oust	-8239
▁sudden	-8240
▁injuries	-8241
▁Hop	-8242
▁spoke	-8243
▁photograph	-8244
▁Where	-8245
itory	-8246
▁credit	-8247
▁Marc	-8248
▁dismissed	-8249
?>	-8250
▁ox	-8251
ureau	-8252
▁funding	-8253
▁distributed	-8254
▁preferred	-8255
▁bes	-8256
▁praise	-8257
▁batting	-8258
▁Iraq	-8259
▁appropriate	-8260
late	-8261
▁pin	-8262
▁cook	-8263
▁buy	-8264
▁claiming	-8265
▁Dom	-8266
import	-8267
▁asking	-8268
▁Ent	-8269
▁Silver	-8270
▁formula	-8271
▁CE	-8272
True	-8273
▁ash	-8274
▁Marine	-8275
▁Wright	-8276
▁degrees	-8277
41	-8278
▁Bishop	-8279
▁weekend	-8280
▁san	-8281
▁recru	-8282
Container	-8283
▁favorite	-8284
▁pushed	-8285
igration	-8286
Link	-8287
▁Jam	-8288
▁falling	-8289
▁astron	-8290
▁thinking	-8291
▁excell	-8292
▁languages	-8293
▁sight	-8294
bin	-8295
ultane	-8296
▁fitted	-8297
▁musicians	-8298
▁conclusion	-8299
▁shut	-8300
▁Heart	-8301
▁template	-8302
aws	-8303
Android	-8304
▁tempor	-8305
▁89	-8306
▁Lanc	-8307
▁inse	-8308
▁documentary	-8309
▁Armen	-8310
▁meets	-8311
element	-8312
▁Winter	-8313
hemat	-8314
▁huge	-8315
▁Anne	-8316
▁Author	-8317
▁smooth	-8318
▁girls	-8319
▁fled	-8320
Params	-8321
ervices	-8322
▁convinced	-8323
▁painted	-8324
▁Croatian	-8325
▁interior	-8326
▁updated	-8327
ythm	-8328
▁Modern	-8329
▁Sports	-8330
ossible	-8331
▁doct	-8332
▁interests	-8333
▁Centre	-8334
▁chain	-8335
▁Thompson	-8336
▁adaptation	-8337
▁operate	-8338
▁chairman	-8339
▁involvement	-8340
▁biggest	-8341
▁Mars	-8342
opes	-8343
▁classical	-8344
Product	-8345
▁Russell	-8346
▁NFL	-8347
▁remn	-8348
▁convention	-8349
▁Sin	-8350
▁bombard	-8351
2]	-8352
10,	-8353
uther	-8354
emor	-8355
▁Along	-8356
Command	-8357
jar	-8358
▁Bed	-8359
▁Holy	-8360
itzer	-8361
▁designer	-8362
ogram	-8363
▁mobile	-8364
▁05	-8365
▁Puerto	-8366
▁97	-8367
▁Brand	-8368
▁longest	-8369
▁Track	-8370
lan	-8371
▁Carter	-8372
▁Player	-8373
▁authors	-8374
▁140	-8375
▁Kelly	-8376
▁encountered	-8377
▁absor	-8378
tenance	-8379
▁exists	-8380
▁academic	-8381
aya	-8382
▁63	-8383
apsed	-8384
▁Hend	-8385
▁grade	-8386
▁carbon	-8387
▁indicate	-8388
▁medieval	-8389
▁sees	-8390
▁characteristics	-8391
▁True	-8392
▁describe	-8393
▁presidential	-8394
jquery	-8395
▁passenger	-8396
▁Cooper	-8397
rient	-8398
▁fighter	-8399
▁facility	-8400
DI	-8401
▁gg	-8402
usic	-8403
una	-8404
▁bon	-8405
▁debug	-8406
rim	-8407
▁Bi	-8408
▁renew	-8409
▁Cas	-8410
▁bat	-8411
▁Gard	-8412
▁Niel	-8413
▁satisf	-8414
▁absence	-8415
▁races	-8416
▁colonial	-8417
▁Pak	-8418
celer	-8419
▁ninth	-8420
▁starred	-8421
ecute	-8422
icide	-8423
ching	-8424
▁Gree	-8425
▁eggs	-8426
▁streets	-8427
-01	-8428
▁Cook	-8429
resents	-8430
▁throne	-8431
iable	-8432
▁Brother	-8433
▁displays	-8434
▁stri	-8435
▁Alban	-8436
▁links	-8437
▁engineer	-8438
agh	-8439
▁standards	-8440
Phone	-8441
▁surviv	-8442
▁adults	-8443
▁superior	-8444
▁Hungarian	-8445
▁turb	-8446
▁enters	-8447
▁partial	-8448
▁loyal	-8449
▁lake	-8450
filter	-8451
▁alien	-8452
SQL	-8453
igen	-8454
▁Express	-8455
▁synthes	-8456
▁jQuery	-8457
▁keeping	-8458
▁reviewer	-8459
▁Der	-8460
▁py	-8461
▁instruct	-8462
▁resolution	-8463
▁Aud	-8464
▁happy	-8465
▁Labor	-8466
▁Dor	-8467
wealth	-8468
▁colle	-8469
section	-8470
▁Nob	-8471
▁JOIN	-8472
Display	-8473
▁Harris	-8474
▁airport	-8475
▁definition	-8476
▁util	-8477
▁prefer	-8478
▁premiered	-8479
▁partn	-8480
▁Visual	-8481
▁treated	-8482
▁submarine	-8483
▁1913	-8484
▁Police	-8485
Det	-8486
▁Ut	-8487
ocus	-8488
▁Dog	-8489
Bottom	-8490
Don	-8491
uda	-8492
▁dub	-8493
▁craft	-8494
▁Parker	-8495
▁mob	-8496
▁enfor	-8497
▁depicted	-8498
▁Batman	-8499
▁deemed	-8500
FC	-8501
▁Ins	-8502
▁trouble	-8503
▁mo	-8504
▁javax	-8505
avigation	-8506
ronze	-8507
▁detailed	-8508
▁releases	-8509
▁attacking	-8510
▁<=	-8511
▁"<	-8512
iary	-8513
▁represents	-8514
▁temperatures	-8515
▁Release	-8516
part	-8517
▁collapse	-8518
▁Education	-8519
RelativeLayout	-8520
ika	-8521
inals	-8522
▁grass	-8523
▁dating	-8524
▁factors	-8525
▁unsuccessful	-8526
anger	-8527
▁alignment	-8528
▁employees	-8529
▁encouraged	-8530
▁DNA	-8531
▁Ren	-8532
orrow	-8533
▁1926	-8534
▁hide	-8535
▁Program	-8536
▁continuing	-8537
▁nice	-8538
▁Murray	-8539
▁signal	-8540
▁fragment	-8541
▁measures	-8542
▁elections	-8543
▁wins	-8544
▁munic	-8545
▁romantic	-8546
▁suffering	-8547
▁loaded	-8548
▁Finn	-8549
▁1927	-8550
▁colony	-8551
▁landed	-8552
Ref	-8553
▁Tok	-8554
apk	-8555
ivan	-8556
▁Knight	-8557
▁convection	-8558
oen	-8559
roit	-8560
gorith	-8561
stances	-8562
▁happens	-8563
▁retirement	-8564
▁percentage	-8565
▁alleg	-8566
▁maint	-8567
////////	-8568
▁1921	-8569
▁rescue	-8570
▁technique	-8571
▁legislation	-8572
▁wings	-8573
▁gap	-8574
▁1934	-8575
▁Advent	-8576
▁74	-8577
▁profile	-8578
▁rum	-8579
▁trained	-8580
▁believes	-8581
▁controversial	-8582
▁arrangement	-8583
▁Late	-8584
ixon	-8585
▁alter	-8586
▁Houston	-8587
▁secured	-8588
▁Merc	-8589
▁requires	-8590
FT	-8591
▁URL	-8592
bridge	-8593
▁Commander	-8594
▁judge	-8595
▁Berlin	-8596
▁Custom	-8597
▁Foundation	-8598
urches	-8599
="5	-8600
kes	-8601
Axis	-8602
▁discussed	-8603
ye	-8604
▁Li	-8605
Url	-8606
▁enh	-8607
▁ing	-8608
▁Social	-8609
▁skills	-8610
EXT	-8611
▁Palace	-8612
2:	-8613
yo	-8614
▁cancer	-8615
webkit	-8616
▁Hospital	-8617
agre	-8618
edding	-8619
▁dominated	-8620
▁Swedish	-8621
▁automatically	-8622
iph	-8623
▁iOS	-8624
▁Yug	-8625
framework	-8626
▁parameter	-8627
bel	-8628
▁1912	-8629
▁Font	-8630
ogether	-8631
▁Having	-8632
▁whereas	-8633
"];	-8634
▁neck	-8635
▁videos	-8636
▁Santa	-8637
▁archae	-8638
(-	-8639
▁carrier	-8640
▁Corporation	-8641
▁extent	-8642
▁habitat	-8643
▁informed	-8644
▁overflow	-8645
emet	-8646
▁pound	-8647
▁behaviour	-8648
FI	-8649
▁analy	-8650
gravity	-8651
scope	-8652
▁purposes	-8653
indows	-8654
▁1932	-8655
ds	-8656
owa	-8657
icial	-8658
▁Mort	-8659
▁Simpson	-8660
omot	-8661
oses	-8662
▁ere	-8663
▁nil	-8664
agu	-8665
▁transparent	-8666
▁Commonwealth	-8667
▁acknowled	-8668
▁horizontal	-8669
▁USA	-8670
udes	-8671
▁Organ	-8672
player	-8673
▁Real	-8674
▁Rick	-8675
▁flash	-8676
▁hundreds	-8677
oggle	-8678
▁remix	-8679
night	-8680
▁trials	-8681
aska	-8682
ture	-8683
javascript	-8684
▁Cru	-8685
▁chapter	-8686
▁excess	-8687
▁railroad	-8688
▁sleep	-8689
shadow	-8690
▁bear	-8691
▁blocks	-8692
▁Indians	-8693
▁Ra	-8694
▁Dec	-8695
din	-8696
▁vel	-8697
fare	-8698
▁directory	-8699
▁Jason	-8700
elli	-8701
eenth	-8702
aints	-8703
'>	-8704
▁belt	-8705
▁encoding	-8706
▁RAAF	-8707
000000	-8708
▁instruments	-8709
GB	-8710
▁bab	-8711
▁gather	-8712
▁refers	-8713
emetery	-8714
Fragment	-8715
arn	-8716
▁PA	-8717
uffer	-8718
▁82	-8719
▁NOT	-8720
Rows	-8721
▁NBC	-8722
umption	-8723
▁emergency	-8724
▁Buck	-8725
▁CR	-8726
▁94	-8727
anny	-8728
▁radius	-8729
▁historic	-8730
arked	-8731
▁happen	-8732
▁owners	-8733
▁formerly	-8734
olph	-8735
="#">	-8736
▁coins	-8737
▁Warner	-8738
▁Yugoslav	-8739
▁),	-8740
▁garrison	-8741
dr	-8742
▁Anthony	-8743
▁retreat	-8744
▁legs	-8745
▁stead	-8746
▁eat	-8747
legate	-8748
▁Lim	-8749
▁170	-8750
weet	-8751
▁moderate	-8752
▁experiences	-8753
scale	-8754
request	-8755
▁molec	-8756
▁polic	-8757
Setter	-8758
▁Origin	-8759
hist	-8760
▁thousand	-8761
▁festival	-8762
▁veter	-8763
▁siege	-8764
▁Writing	-8765
onymous	-8766
▁Croatia	-8767
▁proport	-8768
▁intercept	-8769
▁successor	-8770
iens	-8771
▁bats	-8772
▁watching	-8773
noon	-8774
▁PS	-8775
▁deliver	-8776
▁influential	-8777
▁influences	-8778
lig	-8779
▁~	-8780
▁lowest	-8781
▁Detroit	-8782
▁emotional	-8783
▁Tal	-8784
oked	-8785
▁vul	-8786
▁Check	-8787
▁novels	-8788
▁lose	-8789
▁Pope	-8790
▁narrative	-8791
▁Dal	-8792
Current	-8793
▁easier	-8794
▁faster	-8795
▁reveals	-8796
▁assemb	-8797
▁interesting	-8798
▁RAF	-8799
▁Gaga	-8800
▁1929	-8801
▁climb	-8802
▁giant	-8803
▁Chamber	-8804
▁environmental	-8805
▁veget	-8806
obi	-8807
category	-8808
▁stable	-8809
yard	-8810
▁journalist	-8811
▁",	-8812
▁1911	-8813
▁alcoh	-8814
▁guess	-8815
▁firing	-8816
LT	-8817
how	-8818
close	-8819
▁coin	-8820
▁wasn	-8821
▁Stock	-8822
▁childhood	-8823
▁pregn	-8824
email	-8825
▁scen	-8826
▁Border	-8827
▁procedure	-8828
▁Nevertheless	-8829
▁antic	-8830
▁answ	-8831
="0"	-8832
▁picked	-8833
▁resign	-8834
▁exposed	-8835
▁defended	-8836
▁courts	-8837
Render	-8838
▁Asian	-8839
▁google	-8840
▁reinforce	-8841
▁assass	-8842
long	-8843
▁Samuel	-8844
Block	-8845
mont	-8846
▁offices	-8847
▁victims	-8848
▁Princess	-8849
▁NC	-8850
▁Lyn	-8851
agram	-8852
▁Spears	-8853
▁hunting	-8854
DATE	-8855
▁interpre	-8856
▁simultane	-8857
imore	-8858
▁explicit	-8859
▁GL	-8860
▁diplom	-8861
▁1931	-8862
▁ride	-8863
▁periods	-8864
▁Ext	-8865
▁telling	-8866
▁ocean	-8867
▁medium	-8868
▁minimal	-8869
▁73	-8870
▁Cre	-8871
▁mac	-8872
▁Raw	-8873
▁define	-8874
▁1922	-8875
▁Country	-8876
▁prevented	-8877
orientation	-8878
ova	-8879
▁Jesus	-8880
▁Initially	-8881
▁devices	-8882
▁upgraded	-8883
▁partially	-8884
▁hull	-8885
sd	-8886
▁ske	-8887
▁plus	-8888
▁wooden	-8889
▁Melbourne	-8890
▁configuration	-8891
fit	-8892
ListView	-8893
▁existed	-8894
▁tension	-8895
▁override	-8896
▁implemented	-8897
:1	-8898
aria	-8899
▁Guy	-8900
▁Somers	-8901
▁Nielsen	-8902
▁closing	-8903
▁Width	-8904
▁diagn	-8905
▁Atlant	-8906
lie	-8907
▁net	-8908
▁sender	-8909
▁Vice	-8910
uv	-8911
▁Prim	-8912
Bl	-8913
Bundle	-8914
▁Xbox	-8915
▁Oak	-8916
▁emp	-8917
▁Wing	-8918
▁vice	-8919
▁Tower	-8920
▁resigned	-8921
▁Op	-8922
ouble	-8923
Length	-8924
▁Current	-8925
▁gay	-8926
▁buff	-8927
Center	-8928
▁ridge	-8929
}}	-8930
icians	-8931
▁dialogue	-8932
▁publisher	-8933
▁Gun	-8934
▁Clinton	-8935
▁IE	-8936
▁OR	-8937
▁Evans	-8938
▁thanks	-8939
▁visitors	-8940
▁Qt	-8941
▁mir	-8942
▁surf	-8943
▁desired	-8944
▁Bor	-8945
orous	-8946
ometry	-8947
▁clearly	-8948
SELECT	-8949
▁trick	-8950
▁vision	-8951
▁suspend	-8952
▁implementation	-8953
hatt	-8954
▁Trib	-8955
▁Bird	-8956
window	-8957
▁rese	-8958
▁Anton	-8959
Open	-8960
▁Hell	-8961
▁Stewart	-8962
▁formally	-8963
ribed	-8964
ushing	-8965
▁thereafter	-8966
iece	-8967
inst	-8968
▁sky	-8969
▁handed	-8970
nb	-8971
▁Dur	-8972
support	-8973
▁desert	-8974
▁Turkish	-8975
▁diameter	-8976
▁Muslim	-8977
="10	-8978
▁covers	-8979
▁plate	-8980
▁notably	-8981
▁wel	-8982
▁adjacent	-8983
Runtime	-8984
▁intense	-8985
▁Heavy	-8986
▁storage	-8987
▁opponents	-8988
alo	-8989
▁vs	-8990
▁phr	-8991
▁eval	-8992
▁footage	-8993
▁flew	-8994
▁Carib	-8995
▁isolated	-8996
▁impr	-8997
▁reportedly	-8998
▁participate	-8999
Reg	-9000
▁Son	-9001
First	-9002
▁drums	-9003
odge	-9004
▁accompany	-9005
▁||	-9006
▁agree	-9007
ING	-9008
grade	-9009
▁JSON	-9010
▁Bulgar	-9011
▁execution	-9012
▁Thank	-9013
▁documents	-9014
▁listing	-9015
▁Sarah	-9016
▁stem	-9017
▁boolean	-9018
ta	-9019
▁178	-9020
igate	-9021
▁Albums	-9022
▁Greece	-9023
▁Rey	-9024
status	-9025
▁retrie	-9026
onies	-9027
▁Benn	-9028
▁Stev	-9029
▁Finally	-9030
rency	-9031
▁toll	-9032
▁admin	-9033
▁Lennon	-9034
▁delete	-9035
▁inhabit	-9036
selected	-9037
Html	-9038
▁Ult	-9039
IndexPath	-9040
▁Ban	-9041
▁Austria	-9042
▁hearing	-9043
ois	-9044
ilst	-9045
▁Non	-9046
▁hat	-9047
▁sympt	-9048
none	-9049
▁Ark	-9050
utf	-9051
away	-9052
▁Bou	-9053
▁Baltimore	-9054
Post	-9055
▁els	-9056
rupted	-9057
Users	-9058
▁speak	-9059
▁Queens	-9060
▁impossible	-9061
Entity	-9062
▁commemor	-9063
▁conversion	-9064
▁substantial	-9065
▁departed	-9066
bat	-9067
▁universe	-9068
cted	-9069
▁poetry	-9070
PS	-9071
▁Dave	-9072
▁thin	-9073
▁wheel	-9074
▁assign	-9075
▁impressed	-9076
elete	-9077
▁alpha	-9078
▁taught	-9079
▁Colorado	-9080
][	-9081
▁Pub	-9082
nest	-9083
iac	-9084
▁liqu	-9085
▁Works	-9086
ropolitan	-9087
▁interface	-9088
▁0.5	-9089
▁Lane	-9090
▁yield	-9091
area	-9092
▁demo	-9093
▁scatter	-9094
▁afternoon	-9095
▁agents	-9096
brid	-9097
BO	-9098
rang	-9099
▁rebell	-9100
▁obtain	-9101
▁vessel	-9102
▁residential	-9103
endment	-9104
▁convoy	-9105
▁cruisers	-9106
vider	-9107
▁tie	-9108
▁resear	-9109
bec	-9110
aration	-9111
▁Marshall	-9112
▁dangerous	-9113
▁goods	-9114
▁lib	-9115
opter	-9116
▁Horn	-9117
▁mart	-9118
▁360	-9119
▁sheet	-9120
ila	-9121
▁Lev	-9122
▁underst	-9123
▁((	-9124
▁Malays	-9125
▁loading	-9126
▁junction	-9127
▁bypass	-9128
transform	-9129
cs	-9130
▁Mario	-9131
8.	-9132
▁beach	-9133
ullivan	-9134
▁Horse	-9135
▁falls	-9136
▁suitable	-9137
▁Record	-9138
▁tested	-9139
▁messages	-9140
ologists	-9141
▁enthus	-9142
▁Frederick	-9143
umph	-9144
▁usual	-9145
iami	-9146
▁tools	-9147
▁foreach	-9148
▁territories	-9149
tx	-9150
ivated	-9151
▁difficulties	-9152
▁91	-9153
valid	-9154
ellite	-9155
target	-9156
▁reviewers	-9157
▁Tab	-9158
▁overse	-9159
▁Somerset	-9160
▁imprison	-9161
DB	-9162
▁Ah	-9163
▁Banks	-9164
▁whatever	-9165
▁maintenance	-9166
▁1928	-9167
▁Wrestling	-9168
▁Gilbert	-9169
▁balance	-9170
▁external	-9171
olas	-9172
▁rarely	-9173
ante	-9174
▁teeth	-9175
▁partly	-9176
▁elsewhere	-9177
▁submitted	-9178
▁Ele	-9179
▁asks	-9180
▁benefit	-9181
▁surg	-9182
▁frequent	-9183
▁spending	-9184
api	-9185
olis	-9186
▁feud	-9187
▁linear	-9188
getElement	-9189
iot	-9190
▁dynamic	-9191
▁inline	-9192
▁rg	-9193
uilt	-9194
▁Mach	-9195
▁negotiations	-9196
▁Anna	-9197
▁bridges	-9198
▁forcing	-9199
ERT	-9200
ulator	-9201
▁upload	-9202
next	-9203
▁1925	-9204
▁mand	-9205
▁schedule	-9206
mate	-9207
▁Dest	-9208
family	-9209
▁prohib	-9210
▁ranking	-9211
▁Tan	-9212
▁info	-9213
▁junior	-9214
▁84	-9215
▁Human	-9216
▁extreme	-9217
▁reprodu	-9218
▁engineering	-9219
Base	-9220
icine	-9221
6.	-9222
▁joining	-9223
upp	-9224
▁Cred	-9225
▁explan	-9226
▁withdrew	-9227
▁replacing	-9228
▁Edit	-9229
icity	-9230
sters	-9231
▁Seattle	-9232
▁aged	-9233
▁rates	-9234
▁founder	-9235
▁policies	-9236
POST	-9237
▁seats	-9238
▁Perform	-9239
▁extract	-9240
▁friendly	-9241
Area	-9242
▁organizations	-9243
▁reun	-9244
▁Anglo	-9245
▁scholars	-9246
ennis	-9247
▁1890	-9248
▁Giants	-9249
▁Soon	-9250
alc	-9251
▁MP	-9252
▁specimens	-9253
AM	-9254
▁tone	-9255
▁Miami	-9256
Show	-9257
▁ped	-9258
abama	-9259
▁traveled	-9260
▁relie	-9261
borough	-9262
▁pounds	-9263
▁odd	-9264
pecies	-9265
eu	-9266
igs	-9267
▁registered	-9268
stal	-9269
▁Sche	-9270
helm	-9271
▁frag	-9272
▁helping	-9273
▁vic	-9274
▁ethnic	-9275
Graphics	-9276
password	-9277
TE	-9278
▁""	-9279
inction	-9280
▁1924	-9281
▁raid	-9282
▁ED	-9283
▁Area	-9284
▁recur	-9285
▁repair	-9286
inations	-9287
▁Championships	-9288
TR	-9289
idae	-9290
▁phen	-9291
mm	-9292
remove	-9293
▁Trek	-9294
▁crisis	-9295
▁Edge	-9296
utable	-9297
▁unless	-9298
▁vector	-9299
▁71	-9300
▁prosec	-9301
rations	-9302
▁drag	-9303
▁trend	-9304
seud	-9305
▁ggplot	-9306
▁prompted	-9307
Task	-9308
urance	-9309
▁orb	-9310
▁guide	-9311
▁turrets	-9312
enh	-9313
peat	-9314
▁Race	-9315
Http	-9316
▁finale	-9317
▁Alabama	-9318
just	-9319
▁putting	-9320
overs	-9321
▁Iowa	-9322
▁Treaty	-9323
swing	-9324
▁Tag	-9325
▁truth	-9326
▁verse	-9327
▁representative	-9328
hover	-9329
master	-9330
▁81	-9331
▁criticised	-9332
▁diet	-9333
▁enabled	-9334
▁Ku	-9335
▁platinum	-9336
▁finals	-9337
ifest	-9338
▁compete	-9339
▁Lock	-9340
▁safe	-9341
▁wants	-9342
▁Inte	-9343
▁spaces	-9344
▁5,	-9345
imer	-9346
▁personality	-9347
amer	-9348
message	-9349
▁Forces	-9350
▁covering	-9351
▁familiar	-9352
▁mainstream	-9353
▁MV	-9354
custom	-9355
▁Caribbean	-9356
▁recordings	-9357
▁DC	-9358
▁mamm	-9359
uscript	-9360
▁perspective	-9361
▁Nev	-9362
dest	-9363
agers	-9364
▁stick	-9365
▁Comp	-9366
▁doctor	-9367
▁boundary	-9368
▁fighters	-9369
▁neighborhood	-9370
isd	-9371
▁Sym	-9372
▁USD	-9373
▁$("#	-9374
▁wait	-9375
▁Children	-9376
▁algorith	-9377
ajax	-9378
▁setup	-9379
▁Napole	-9380
▁honour	-9381
▁refuge	-9382
Ab	-9383
▁cant	-9384
println	-9385
▁Lawrence	-9386
▁105	-9387
oking	-9388
▁bran	-9389
sea	-9390
▁Mississ	-9391
nections	-9392
▁locomot	-9393
▁concerts	-9394
Search	-9395
aa	-9396
▁tub	-9397
named	-9398
▁1923	-9399
▁Charlie	-9400
rator	-9401
▁Canal	-9402
▁moral	-9403
1);	-9404
rep	-9405
▁aggress	-9406
▁creator	-9407
▁credits	-9408
▁Much	-9409
▁bases	-9410
▁Health	-9411
▁aggreg	-9412
TW	-9413
fish	-9414
▁gro	-9415
▁Ale	-9416
▁gat	-9417
▁tenth	-9418
▁checked	-9419
▁monument	-9420
▁jur	-9421
▁pitched	-9422
▁Blood	-9423
▁Minnes	-9424
▁Crown	-9425
▁Building	-9426
ocol	-9427
▁Senator	-9428
esign	-9429
▁zero	-9430
apshot	-9431
▁divor	-9432
▁Administ	-9433
▁CP	-9434
▁Bros	-9435
cester	-9436
▁assembly	-9437
Builder	-9438
▁approval	-9439
JS	-9440
▁sq	-9441
▁symp	-9442
▁overs	-9443
ods	-9444
▁Ian	-9445
▁Auto	-9446
;">	-9447
mad	-9448
ental	-9449
▁boys	-9450
Change	-9451
▁disturb	-9452
▁shear	-9453
otten	-9454
▁protest	-9455
3"	-9456
▁wish	-9457
▁hockey	-9458
▁Polit	-9459
▁comparison	-9460
▁Prom	-9461
▁appointment	-9462
▁Native	-9463
▁stores	-9464
▁surprise	-9465
lang	-9466
▁destroyers	-9467
▁Face	-9468
▁lect	-9469
cor	-9470
andy	-9471
9.	-9472
▁Ministry	-9473
▁compilation	-9474
▁Lam	-9475
▁Cold	-9476
▁loan	-9477
▁Garden	-9478
▁signing	-9479
▁Dance	-9480
▁underw	-9481
▁concrete	-9482
▁Brig	-9483
▁Range	-9484
▁explo	-9485
▁churches	-9486
ifer	-9487
▁Hamp	-9488
▁Grammy	-9489
▁Hungary	-9490
▁moments	-9491
▁travelled	-9492
▁unlike	-9493
▁Æ	-9494
▁targets	-9495
="1	-9496
awt	-9497
urday	-9498
▁powered	-9499
▁Benj	-9500
▁Nazi	-9501
▁Error	-9502
urer	-9503
▁radar	-9504
▁stroke	-9505
▁creative	-9506
white	-9507
▁bombers	-9508
node	-9509
▁inaug	-9510
▁Belgium	-9511
▁printed	-9512
▁grown	-9513
▁advis	-9514
▁couldn	-9515
▁93	-9516
▁fat	-9517
▁Shakes	-9518
▁dynasty	-9519
▁Internet	-9520
▁Method	-9521
▁housing	-9522
▁Represent	-9523
HP	-9524
▁Kal	-9525
▁marks	-9526
▁initWith	-9527
▁fold	-9528
▁partnership	-9529
▁uncertain	-9530
▁VI	-9531
▁coordinates	-9532
det	-9533
inv	-9534
▁offset	-9535
▁villages	-9536
▁Australians	-9537
▁designation	-9538
▁protagonist	-9539
▁Diego	-9540
▁refere	-9541
▁explains	-9542
▁Map	-9543
▁Model	-9544
▁Friend	-9545
▁Christopher	-9546
usal	-9547
▁eliminated	-9548
▁Dead	-9549
▁sending	-9550
▁2)	-9551
blue	-9552
▁fung	-9553
▁tribute	-9554
▁seeking	-9555
▁hook	-9556
▁Control	-9557
▁corresponding	-9558
▁Shakespe	-9559
▁Medal	-9560
▁precip	-9561
▁rounds	-9562
▁acted	-9563
ugby	-9564
ashes	-9565
▁cyl	-9566
▁Content	-9567
▁convers	-9568
▁candidates	-9569
application	-9570
anim	-9571
▁oxy	-9572
mates	-9573
ubble	-9574
▁Laure	-9575
▁truck	-9576
alions	-9577
▁backing	-9578
▁Make	-9579
amount	-9580
▁Trust	-9581
▁preserved	-9582
▁instrumental	-9583
root	-9584
velt	-9585
scroll	-9586
▁strings	-9587
▁Township	-9588
▁Guardian	-9589
▁Aff	-9590
ounced	-9591
▁dollars	-9592
Write	-9593
▁Legacy	-9594
▁07	-9595
olver	-9596
oa	-9597
amps	-9598
▁arts	-9599
▁forg	-9600
hattan	-9601
▁elabor	-9602
onnaissance	-9603
mers	-9604
▁04	-9605
▁1905	-9606
▁Cole	-9607
▁professor	-9608
▁canal	-9609
idel	-9610
▁fur	-9611
write	-9612
▁storms	-9613
▁struggle	-9614
▁scientists	-9615
agen	-9616
########	-9617
▁survive	-9618
▁1908	-9619
▁Khan	-9620
▁Hockey	-9621
▁listen	-9622
Animation	-9623
▁1909	-9624
▁treaty	-9625
▁possession	-9626
../	-9627
space	-9628
▁Know	-9629
▁beautiful	-9630
▁innov	-9631
▁Path	-9632
namese	-9633
▁prepare	-9634
▁Benjamin	-9635
▁paintings	-9636
panel	-9637
▁patterns	-9638
▁Vietnamese	-9639
▁software	-9640
▁victories	-9641
ifies	-9642
▁module	-9643
>>	-9644
lay	-9645
▁cir	-9646
▁Hills	-9647
▁arriving	-9648
▁occupation	-9649
▁Flight	-9650
▁Michel	-9651
▁occasions	-9652
▁Server	-9653
ographical	-9654
MI	-9655
▁publicly	-9656
Per	-9657
▁Ts	-9658
▁Roose	-9659
▁measured	-9660
▁twin	-9661
▁Gab	-9662
▁newspapers	-9663
▁helic	-9664
▁wet	-9665
▁Manhattan	-9666
▁Hud	-9667
▁Link	-9668
▁soil	-9669
orph	-9670
▁signs	-9671
▁dies	-9672
▁rhythm	-9673
rising	-9674
▁suicide	-9675
arant	-9676
▁Walker	-9677
▁Alfred	-9678
▁dispute	-9679
▁Minnesota	-9680
2);	-9681
▁125	-9682
▁gard	-9683
orious	-9684
69	-9685
▁'$	-9686
▁foundation	-9687
/20	-9688
Icon	-9689
ructions	-9690
pression	-9691
▁seed	-9692
▁temp	-9693
▁Born	-9694
▁strict	-9695
▁Franklin	-9696
horizontal	-9697
▁Kurt	-9698
▁Tree	-9699
▁email	-9700
▁fishing	-9701
ski	-9702
nate	-9703
eries	-9704
▁factory	-9705
▁Business	-9706
▁rendered	-9707
▁manuscript	-9708
▁predict	-9709
ctic	-9710
▁marry	-9711
▁identify	-9712
▁subjects	-9713
▁Interstate	-9714
▁5.	-9715
bb	-9716
sky	-9717
="1.0	-9718
▁noticed	-9719
▁Dra	-9720
▁nom	-9721
▁Hotel	-9722
ishment	-9723
▁maybe	-9724
▁neutral	-9725
▁abilities	-9726
▁articles	-9727
▁Roosevelt	-9728
▁adm	-9729
▁murd	-9730
Project	-9731
angular	-9732
▁Saturday	-9733
▁Ll	-9734
▁['	-9735
▁Hong	-9736
▁cooper	-9737
Category	-9738
▁Ess	-9739
▁Industry	-9740
UITableView	-9741
deg	-9742
▁1.0	-9743
▁ideal	-9744
▁electronic	-9745
▁resumed	-9746
▁spiritual	-9747
OW	-9748
▁shift	-9749
arrow	-9750
▁dynam	-9751
▁1907	-9752
phony	-9753
▁vers	-9754
▁Height	-9755
▁Peninsula	-9756
▁assess	-9757
▁teaching	-9758
ori	-9759
atherine	-9760
▁Vin	-9761
▁lob	-9762
▁communication	-9763
5)	-9764
▁Nash	-9765
▁contents	-9766
▁Shel	-9767
▁Bull	-9768
▁lock	-9769
iveness	-9770
▁emperor	-9771
▁violent	-9772
YPE	-9773
▁92	-9774
▁pilots	-9775
▁dict	-9776
Windows	-9777
▁Digital	-9778
▁willing	-9779
▁competed	-9780
▁attendance	-9781
:'	-9782
bra	-9783
▁Surv	-9784
▁Fried	-9785
▁Number	-9786
▁tunnel	-9787
▁wedding	-9788
▁unex	-9789
▁Kansas	-9790
▁survivors	-9791
▁<%	-9792
incial	-9793
munition	-9794
sg	-9795
▁__	-9796
Did	-9797
▁symptoms	-9798
▁retain	-9799
▁Bh	-9800
▁Lith	-9801
rating	-9802
▁waves	-9803
Read	-9804
▁Hero	-9805
▁Connect	-9806
▁Ward	-9807
▁Wolf	-9808
▁filed	-9809
▁wrest	-9810
▁(!	-9811
▁Thor	-9812
inea	-9813
Visible	-9814
▁Mississipp	-9815
▁Portland	-9816
ilty	-9817
▁advoc	-9818
▁intensified	-9819
▁pulled	-9820
▁waiting	-9821
▁expensive	-9822
▁businesses	-9823
-2	-9824
▁NA	-9825
evice	-9826
▁rivers	-9827
▁defeating	-9828
Co	-9829
▁poison	-9830
▁variables	-9831
▁fatal	-9832
▁mines	-9833
▁prime	-9834
▁behalf	-9835
▁assisted	-9836
▁Dw	-9837
▁entity	-9838
▁nations	-9839
▁opponent	-9840
requ	-9841
styles	-9842
▁coverage	-9843
rapped	-9844
Attribute	-9845
▁rotation	-9846
itual	-9847
perties	-9848
▁assists	-9849
▁orbit	-9850
Picker	-9851
▁plain	-9852
irty	-9853
-8"	-9854
EY	-9855
▁oxygen	-9856
▁circuit	-9857
▁fifteen	-9858
▁restaurant	-9859
springframework	-9860
uable	-9861
▁corpor	-9862
▁pace	-9863
uations	-9864
▁password	-9865
▁agricultural	-9866
]);	-9867
▁ML	-9868
▁Small	-9869
▁flights	-9870
▁tornado	-9871
▁1880	-9872
"));	-9873
▁situated	-9874
mi	-9875
-12	-9876
Holder	-9877
lah	-9878
▁frust	-9879
▁temporarily	-9880
▁danc	-9881
▁citing	-9882
▁reaches	-9883
Identifier	-9884
▁sequences	-9885
="/	-9886
▁Cob	-9887
itated	-9888
urally	-9889
▁programming	-9890
▁Mun	-9891
father	-9892
asters	-9893
▁Blues	-9894
▁poorly	-9895
iples	-9896
odore	-9897
▁Halo	-9898
▁sunk	-9899
▁overw	-9900
ypes	-9901
▁lem	-9902
reens	-9903
▁Gray	-9904
▁decides	-9905
▁deliber	-9906
▁Alexand	-9907
▁ng	-9908
home	-9909
ouri	-9910
▁Lad	-9911
▁Lat	-9912
▁sank	-9913
▁initi	-9914
▁sector	-9915
▁duration	-9916
▁Hans	-9917
▁Mitche	-9918
▁parish	-9919
▁Shakespeare	-9920
rine	-9921
▁forty	-9922
▁Tennes	-9923
▁reflected	-9924
▁Hindu	-9925
▁forests	-9926
▁Campbell	-9927
▁ninet	-9928
rs	-9929
▁wider	-9930
▁efficient	-9931
▁rig	-9932
▁evil	-9933
▁overt	-9934
▁pool	-9935
▁specified	-9936
ques	-9937
▁Cyr	-9938
mn	-9939
▁Ye	-9940
▁voiced	-9941
▁amounts	-9942
▁suspended	-9943
▁Wor	-9944
▁disaster	-9945
ClickListener	-9946
ango	-9947
▁Athlet	-9948
▁ammunition	-9949
ygon	-9950
▁heading	-9951
▁illness	-9952
▁talking	-9953
▁collaboration	-9954
▁Steven	-9955
▁acceler	-9956
▁sacr	-9957
▁recip	-9958
▁superv	-9959
▁categories	-9960
▁3,	-9961
▁Does	-9962
▁repairs	-9963
▁Stat	-9964
die	-9965
Brush	-9966
otation	-9967
▁Sullivan	-9968
▁Brun	-9969
▁liked	-9970
ateur	-9971
▁Lucas	-9972
▁limits	-9973
▁clock	-9974
▁imperial	-9975
▁Maur	-9976
▁coun	-9977
▁feelings	-9978
acon	-9979
netic	-9980
▁pron	-9981
screen	-9982
▁orient	-9983
▁cos	-9984
Mouse	-9985
andal	-9986
▁Josh	-9987
Qt	-9988
▁tut	-9989
▁audiences	-9990
▁underground	-9991
▁cv	-9992
aron	-9993
util	-9994
gener	-9995
▁Right	-9996
▁Egyptian	-9997
▁lieutenant	-9998
vet	-9999
67	-10000
ucks	-10001
1'	-10002
▁TO	-10003
▁Guide	-10004
▁83	-10005
▁@"	-10006
▁parameters	-10007
▁skull	-10008
▁neighb	-10009
▁operational	-10010
▁applications	-10011
▁affairs	-10012
▁Jos	-10013
▁cargo	-10014
wa	-10015
Pass	-10016
Gener	-10017
▁jobs	-10018
stop	-10019
lings	-10020
▁decide	-10021
▁manage	-10022
▁Rab	-10023
▁Begin	-10024
▁Tennessee	-10025
▁cancelled	-10026
▁suggesting	-10027
▁Mississippi	-10028
▁Ec	-10029
▁Kings	-10030
▁Stevens	-10031
▁escaped	-10032
▁Margaret	-10033
▁latest	-10034
▁artwork	-10035
▁1906	-10036
format	-10037
▁aimed	-10038
ename	-10039
▁curve	-10040
▁earthqu	-10041
▁Mes	-10042
▁Tel	-10043
▁Circ	-10044
▁Louisiana	-10045
68	-10046
Pos	-10047
▁Labour	-10048
▁closest	-10049
▁Hem	-10050
anium	-10051
▁recognised	-10052
Tag	-10053
inces	-10054
▁affair	-10055
▁fastest	-10056
▁Mack	-10057
▁funeral	-10058
▁Montreal	-10059
adi	-10060
▁Dragon	-10061
▁density	-10062
▁indicates	-10063
rage	-10064
▁1904	-10065
▁clar	-10066
eron	-10067
foot	-10068
icken	-10069
▁Mess	-10070
▁abol	-10071
▁threw	-10072
▁Mitchell	-10073
▁Original	-10074
;}	-10075
DF	-10076
▁Ring	-10077
▁mountains	-10078
▁Philippines	-10079
zech	-10080
GridView	-10081
HT	-10082
▁Fem	-10083
Order	-10084
▁edited	-10085
▁completing	-10086
▁Historic	-10087
▁Depression	-10088
▁offering	-10089
▁1870	-10090
="1.0"	-10091
▁Palest	-10092
▁conscious	-10093
▁attributes	-10094
cha	-10095
▁Independent	-10096
▁Pars	-10097
▁Billy	-10098
▁comfort	-10099
▁creates	-10100
▁favorable	-10101
▁Rub	-10102
▁Frid	-10103
▁poly	-10104
▁preparation	-10105
gate	-10106
▁jazz	-10107
▁elder	-10108
▁statue	-10109
▁Missouri	-10110
▁manually	-10111
▁entertainment	-10112
dec	-10113
▁spl	-10114
▁Snow	-10115
ée	-10116
▁Item	-10117
▁quad	-10118
▁Harvey	-10119
▁Warren	-10120
▁explosion	-10121
▁Kirk	-10122
▁Cow	-10123
▁ratio	-10124
storm	-10125
▁Cost	-10126
▁Near	-10127
▁bulk	-10128
▁shells	-10129
np	-10130
▁Nag	-10131
▁frequency	-10132
▁rebuilt	-10133
▁mathemat	-10134
▁ownership	-10135
▁fifty	-10136
▁calculate	-10137
▁Critics	-10138
▁restoration	-10139
▁amongst	-10140
▁wreck	-10141
▁Graham	-10142
▁pref	-10143
▁Czech	-10144
overe	-10145
▁alternate	-10146
▁Such	-10147
▁ranks	-10148
▁residence	-10149
FO	-10150
▁strange	-10151
▁Chrome	-10152
▁matters	-10153
push	-10154
▁Sign	-10155
avel	-10156
quir	-10157
points	-10158
▁connecting	-10159
▁wore	-10160
Access	-10161
▁reluct	-10162
▁ABC	-10163
▁iter	-10164
▁Rap	-10165
▁alliance	-10166
▁accum	-10167
▁scope	-10168
Reader	-10169
▁Seven	-10170
▁bay	-10171
▁alcohol	-10172
▁restricted	-10173
tag	-10174
▁std	-10175
▁rent	-10176
▁nucle	-10177
▁terror	-10178
▁bars	-10179
Description	-10180
DS	-10181
ocity	-10182
onomy	-10183
▁clin	-10184
▁resource	-10185
▁cous	-10186
▁touring	-10187
Screen	-10188
▁banks	-10189
inental	-10190
▁horror	-10191
▁administrative	-10192
umps	-10193
▁rend	-10194
Address	-10195
life	-10196
▁badly	-10197
erk	-10198
▁tou	-10199
▁fairly	-10200
Call	-10201
artney	-10202
ellect	-10203
▁arrive	-10204
uma	-10205
▁blank	-10206
▁Ariz	-10207
▁Swift	-10208
arance	-10209
toString	-10210
qual	-10211
▁Grey	-10212
bishop	-10213
▁widget	-10214
▁directors	-10215
▁Mik	-10216
▁Cuba	-10217
▁reven	-10218
▁tribes	-10219
▁Application	-10220
ylan	-10221
▁reverse	-10222
▁dramatic	-10223
▁doubt	-10224
▁03	-10225
▁breaks	-10226
▁Persian	-10227
▁pictures	-10228
▁demonstrated	-10229
cru	-10230
▁Ped	-10231
▁tack	-10232
▁merchant	-10233
▁excellent	-10234
▁celeb	-10235
▁shadow	-10236
mail	-10237
▁racing	-10238
▁wicket	-10239
▁practices	-10240
▁json	-10241
▁Tamil	-10242
▁nodes	-10243
MO	-10244
▁lacked	-10245
▁suspect	-10246
▁predomin	-10247
▁Description	-10248
▁translation	-10249
send	-10250
▁Cher	-10251
▁guarant	-10252
▁landscape	-10253
▁Rest	-10254
▁Phoen	-10255
▁placing	-10256
▁samples	-10257
▁tor	-10258
lyph	-10259
issue	-10260
client	-10261
▁monitor	-10262
sts	-10263
▁garden	-10264
▁retail	-10265
▁impression	-10266
▁rising	-10267
▁engagement	-10268
▁ranges	-10269
▁Lov	-10270
izard	-10271
▁quiet	-10272
▁documentation	-10273
-4	-10274
▁contributions	-10275
▁Sony	-10276
▁magic	-10277
▁argues	-10278
▁0);	-10279
▁colonies	-10280
▁highlighted	-10281
tar	-10282
▁Obs	-10283
▁pip	-10284
▁femin	-10285
Enabled	-10286
▁Indies	-10287
Mon	-10288
values	-10289
▁drove	-10290
▁ranging	-10291
dn	-10292
nbsp	-10293
▁Arizona	-10294
▁DS	-10295
▁realized	-10296
▁CS	-10297
arth	-10298
ieties	-10299
▁armored	-10300
has	-10301
Sheet	-10302
entry	-10303
▁Scout	-10304
▁genetic	-10305
▁artistic	-10306
▁repeatedly	-10307
▁simultaneously	-10308
▁ports	-10309
▁increases	-10310
▁Furthermore	-10311
estyle	-10312
idency	-10313
▁Dylan	-10314
▁Bureau	-10315
▁Las	-10316
:10	-10317
lon	-10318
anch	-10319
submit	-10320
▁submit	-10321
▁remnants	-10322
▁objective	-10323
▁requirements	-10324
:"	-10325
fx	-10326
▁centered	-10327
▁similarly	-10328
Constra	-10329
▁removing	-10330
▁gang	-10331
▁characterized	-10332
▁earning	-10333
▁playoffs	-10334
▁shipping	-10335
han	-10336
roc	-10337
*/	-10338
imp	-10339
estone	-10340
▁crews	-10341
▁succeed	-10342
TextField	-10343
▁severely	-10344
▁bowling	-10345
▁texture	-10346
rous	-10347
▁Cycl	-10348
▁gate	-10349
▁whilst	-10350
▁identical	-10351
▁electron	-10352
▁predicted	-10353
▁Marie	-10354
vy	-10355
▁vulner	-10356
▁suggestion	-10357
oga	-10358
bird	-10359
▁meat	-10360
▁casting	-10361
▁militia	-10362
IG	-10363
▁tight	-10364
▁happening	-10365
▁Nik	-10366
▁myst	-10367
▁institutions	-10368
▁Select	-10369
▁legacy	-10370
rt	-10371
▁armament	-10372
Ne	-10373
▁distinctive	-10374
▁Report	-10375
▁enable	-10376
▁fallen	-10377
update	-10378
InstanceState	-10379
black	-10380
▁Page	-10381
istent	-10382
---	-10383
appy	-10384
avor	-10385
▁Those	-10386
▁Confederate	-10387
'-	-10388
▁Econom	-10389
owed	-10390
ruption	-10391
>"	-10392
aux	-10393
ivia	-10394
▁bronze	-10395
ortunately	-10396
jan	-10397
▁kW	-10398
oven	-10399
otton	-10400
▁Expl	-10401
▁Oklah	-10402
▁Barbar	-10403
▁shield	-10404
ugg	-10405
▁excav	-10406
▁respective	-10407
1",	-10408
yon	-10409
pled	-10410
▁propag	-10411
itzerland	-10412
▁considering	-10413
▁representation	-10414
shape	-10415
Columns	-10416
▁circumstances	-10417
azing	-10418
hidden	-10419
▁spotted	-10420
dess	-10421
▁stops	-10422
▁riders	-10423
▁>=	-10424
▁mental	-10425
▁gust	-10426
▁wonder	-10427
▁revenue	-10428
:100	-10429
▁condem	-10430
▁drivers	-10431
nor	-10432
▁Saf	-10433
▁Murphy	-10434
oker	-10435
▁Rang	-10436
▁feels	-10437
▁poems	-10438
▁revers	-10439
▁branches	-10440
▁flagship	-10441
▁personally	-10442
▁opens	-10443
▁Switzerland	-10444
▁connections	-10445
▁inhabitants	-10446
▁distinguished	-10447
cut	-10448
▁inland	-10449
▁Wilhelm	-10450
ancell	-10451
▁maneu	-10452
▁posts	-10453
bind	-10454
▁Amy	-10455
▁satellite	-10456
pler	-10457
▁perfectly	-10458
▁Broadway	-10459
▁Mrs	-10460
▁synd	-10461
▁indeed	-10462
▁conservative	-10463
▁handled	-10464
Su	-10465
▁Local	-10466
98	-10467
NAME	-10468
▁boss	-10469
▁remote	-10470
▁sisters	-10471
PT	-10472
▁sear	-10473
▁Barry	-10474
▁agency	-10475
▁continu	-10476
▁evolved	-10477
▁Unt	-10478
▁pup	-10479
▁alive	-10480
▁surge	-10481
▁dominant	-10482
sequently	-10483
▁dollar	-10484
▁seriously	-10485
▁coinc	-10486
▁Collection	-10487
:3	-10488
▁Say	-10489
▁1901	-10490
▁Less	-10491
▁vast	-10492
ivation	-10493
▁northward	-10494
.*	-10495
repeat	-10496
▁protein	-10497
elle	-10498
▁roots	-10499
▁impress	-10500
rh	-10501
=0;	-10502
▁exhibition	-10503
uri	-10504
▁edges	-10505
▁Es	-10506
▁rotate	-10507
▁illegal	-10508
▁indicating	-10509
0)	-10510
icons	-10511
▁slaves	-10512
▁Oklahoma	-10513
▁abund	-10514
▁nominations	-10515
enger	-10516
▁outl	-10517
▁virtual	-10518
=""	-10519
Provider	-10520
▁Players	-10521
▁Austrian	-10522
▁Federation	-10523
Impl	-10524
▁quarterback	-10525
icut	-10526
▁controll	-10527
▁phenomen	-10528
▁subspecies	-10529
▁cup	-10530
▁fault	-10531
findViewById	-10532
▁predecessor	-10533
rent	-10534
▁conqu	-10535
▁discipl	-10536
▁Originally	-10537
▁ju	-10538
initely	-10539
▁autobi	-10540
▁households	-10541
Offset	-10542
▁myself	-10543
▁Fif	-10544
▁Lex	-10545
depend	-10546
▁palace	-10547
▁Delaware	-10548
which	-10549
▁readers	-10550
▁elevation	-10551
▁Ald	-10552
shore	-10553
▁1903	-10554
▁assume	-10555
▁intellect	-10556
▁Lithuan	-10557
▁apartment	-10558
fa	-10559
▁PHP	-10560
▁philosophy	-10561
NET	-10562
▁Ton	-10563
▁1902	-10564
▁Services	-10565
inian	-10566
fields	-10567
Response	-10568
▁carriers	-10569
:#	-10570
▁Perry	-10571
▁bombs	-10572
di	-10573
▁Our	-10574
▁Roll	-10575
▁Denmark	-10576
▁resolved	-10577
vc	-10578
▁XML	-10579
▁manip	-10580
▁usage	-10581
▁signature	-10582
74	-10583
▁115	-10584
▁Len	-10585
▁triple	-10586
▁visiting	-10587
▁Sem	-10588
▁adventure	-10589
Integer	-10590
▁surgery	-10591
▁attained	-10592
bal	-10593
▁Ont	-10594
views	-10595
▁Leslie	-10596
▁ticket	-10597
▁observations	-10598
rose	-10599
▁tip	-10600
alling	-10601
▁holid	-10602
▁$.	-10603
athy	-10604
ascar	-10605
▁wire	-10606
▁allies	-10607
▁01	-10608
▁login	-10609
▁photo	-10610
▁Territ	-10611
▁meetings	-10612
alid	-10613
Target	-10614
▁statements	-10615
_2	-10616
ffff	-10617
response	-10618
▁peaking	-10619
indexPath	-10620
▁suggestions	-10621
▁backed	-10622
▁supplied	-10623
Definition	-10624
▁perceived	-10625
>();	-10626
agger	-10627
▁bonus	-10628
▁Mother	-10629
▁delivery	-10630
ardo	-10631
▁biographer	-10632
▁Rih	-10633
▁Ridge	-10634
▁sharp	-10635
▁Jonathan	-10636
si	-10637
▁cub	-10638
▁Baby	-10639
▁Tokyo	-10640
▁shorter	-10641
▁algorithm	-10642
NG	-10643
▁Below	-10644
▁exercise	-10645
▁arguments	-10646
ghan	-10647
▁Lib	-10648
ettings	-10649
▁Target	-10650
▁Campaign	-10651
AndroidRuntime	-10652
OM	-10653
edit	-10654
▁Moh	-10655
Char	-10656
▁portions	-10657
▁planets	-10658
▁tort	-10659
▁westward	-10660
getElementById	-10661
▁Take	-10662
▁drugs	-10663
▁Baseball	-10664
▁musician	-10665
▁remarked	-10666
▁Enterprise	-10667
aughters	-10668
stan	-10669
▁Pil	-10670
▁Atlanta	-10671
▁Spir	-10672
▁Juan	-10673
▁Johnny	-10674
▁Rihanna	-10675
▁handling	-10676
▁warnings	-10677
▁searching	-10678
-3	-10679
▁armour	-10680
hard	-10681
meta	-10682
▁institution	-10683
▁Lang	-10684
▁battalions	-10685
▁developers	-10686
▁Nixon	-10687
▁Hann	-10688
▁bene	-10689
▁Console	-10690
▁essential	-10691
Init	-10692
▁Opp	-10693
▁Sig	-10694
▁Rico	-10695
▁Abbey	-10696
▁Drive	-10697
example	-10698
:2	-10699
▁Eventually	-10700
CS	-10701
DK	-10702
▁compens	-10703
▁civilian	-10704
9999	-10705
dale	-10706
▁Dyn	-10707
▁optim	-10708
▁salt	-10709
▁altered	-10710
▁Universal	-10711
▁sick	-10712
apolis	-10713
▁pairs	-10714
▁EP	-10715
▁OS	-10716
▁Ple	-10717
▁marketing	-10718
▁Inn	-10719
▁Rat	-10720
▁350	-10721
▁drink	-10722
encing	-10723
▁chamber	-10724
ologies	-10725
tha	-10726
▁Maj	-10727
▁indu	-10728
▁Total	-10729
location	-10730
▁strengthened	-10731
total	-10732
rary	-10733
▁horn	-10734
TextBox	-10735
asts	-10736
comp	-10737
items	-10738
orrect	-10739
▁demanded	-10740
▁reconnaissance	-10741
▁Pitts	-10742
mingham	-10743
irections	-10744
▁produces	-10745
▁segments	-10746
▁Arnold	-10747
▁citizen	-10748
ificial	-10749
▁Edwards	-10750
icing	-10751
project	-10752
▁justice	-10753
▁disabled	-10754
▁relevant	-10755
▁struggled	-10756
ista	-10757
▁pul	-10758
▁EDIT	-10759
▁lanes	-10760
▁subsid	-10761
Document	-10762
▁demands	-10763
▁typhoon	-10764
▁forecast	-10765
▁Ral	-10766
▁consistent	-10767
▁understood	-10768
plotlib	-10769
▁promised	-10770
▁bind	-10771
▁insisted	-10772
▁enlisted	-10773
chart	-10774
▁Iran	-10775
▁forth	-10776
Version	-10777
▁possess	-10778
▁Railroad	-10779
▁publishing	-10780
20,	-10781
▁Anc	-10782
▁Inv	-10783
▁Beck	-10784
▁Madag	-10785
▁Soul	-10786
▁Keith	-10787
▁discont	-10788
bow	-10789
ingle	-10790
▁Chel	-10791
▁punk	-10792
▁Jimmy	-10793
Database	-10794
▁organisation	-10795
ials	-10796
town	-10797
▁voy	-10798
▁failing	-10799
uki	-10800
star	-10801
utter	-10802
▁Lost	-10803
▁bombing	-10804
▁AR	-10805
call	-10806
▁Prize	-10807
[0].	-10808
▁Rachel	-10809
▁athletes	-10810
%,	-10811
acked	-10812
▁boxes	-10813
▁bin	-10814
▁provision	-10815
▁compliment	-10816
entle	-10817
rac	-10818
▁bid	-10819
▁prove	-10820
▁mainland	-10821
▁cod	-10822
▁Task	-10823
▁165	-10824
▁Mong	-10825
▁orchestra	-10826
▁Shaw	-10827
▁sung	-10828
▁pione	-10829
▁sitting	-10830
▁audition	-10831
▁membership	-10832
▁Foreign	-10833
hu	-10834
acre	-10835
▁shock	-10836
lat	-10837
▁Liz	-10838
▁Nine	-10839
▁Impact	-10840
iency	-10841
▁Peace	-10842
▁Screen	-10843
▁democr	-10844
▁guilty	-10845
xsl	-10846
▁'#	-10847
odox	-10848
eding	-10849
▁Karl	-10850
▁surpass	-10851
CD	-10852
▁Vik	-10853
asant	-10854
▁mail	-10855
reation	-10856
▁counties	-10857
rin	-10858
rapy	-10859
▁Yankees	-10860
bootstrap	-10861
▁Community	-10862
▁guitarist	-10863
▁essentially	-10864
▁sin	-10865
▁Bach	-10866
▁throws	-10867
▁permitted	-10868
▁Mult	-10869
▁Legend	-10870
▁armies	-10871
alignParent	-10872
oons	-10873
▁Tol	-10874
▁Exec	-10875
▁ritual	-10876
▁dancing	-10877
▁Security	-10878
▁collapsed	-10879
One	-10880
warf	-10881
▁fro	-10882
avery	-10883
placed	-10884
▁JPanel	-10885
ibernate	-10886
IO	-10887
merce	-10888
ouver	-10889
▁pseud	-10890
▁execute	-10891
▁dupl	-10892
▁Friday	-10893
▁ruling	-10894
"'	-10895
Max	-10896
▁Fel	-10897
▁deput	-10898
▁binding	-10899
▁Birmingham	-10900
eland	-10901
▁Tracy	-10902
▁demolished	-10903
▁cra	-10904
azines	-10905
▁mining	-10906
▁Fr	-10907
▁brick	-10908
▁starring	-10909
▁..	-10910
▁Mission	-10911
▁improvements	-10912
▁Obama	-10913
▁pursue	-10914
▁resolve	-10915
▁certainly	-10916
4)	-10917
▁μ	-10918
▁kiss	-10919
▁orange	-10920
▁theater	-10921
dict	-10922
▁unw	-10923
ulous	-10924
/2	-10925
▁Ey	-10926
▁encl	-10927
▁hosts	-10928
▁believing	-10929
▁Si	-10930
▁Hugh	-10931
▁bare	-10932
Bitmap	-10933
▁Based	-10934
▁exclud	-10935
cription	-10936
SP	-10937
sett	-10938
▁fewer	-10939
▁Canter	-10940
▁culmin	-10941
Tree	-10942
▁func	-10943
folk	-10944
▁confirm	-10945
▁discovers	-10946
comm	-10947
role	-10948
▁McCartney	-10949
▁basically	-10950
green	-10951
▁Hudson	-10952
▁liquid	-10953
▁patron	-10954
▁authent	-10955
▁specify	-10956
▁texts	-10957
▁Phoenix	-10958
▁raising	-10959
▁framework	-10960
▁Baker	-10961
▁clothing	-10962
hol	-10963
▁meter	-10964
▁Rights	-10965
▁stress	-10966
▁Jup	-10967
aders	-10968
haust	-10969
▁Diam	-10970
▁funny	-10971
▁merely	-10972
▁hitting	-10973
▁referring	-10974
▁ca	-10975
▁Ker	-10976
▁Integer	-10977
Acc	-10978
▁Goth	-10979
▁Vert	-10980
Resources	-10981
Min	-10982
▁cutting	-10983
▁initiated	-10984
)))	-10985
▁mayor	-10986
▁interpretation	-10987
each	-10988
▁Sak	-10989
itals	-10990
▁Bomb	-10991
▁Girls	-10992
▁removal	-10993
▁Mint	-10994
ensively	-10995
▁Kra	-10996
ensor	-10997
▁Wayne	-10998
replace	-10999
▁Altern	-11000
eria	-11001
▁rif	-11002
▁decisions	-11003
Hel	-11004
▁Barb	-11005
▁Bobby	-11006
▁qualified	-11007
▁Wag	-11008
▁Lion	-11009
▁Todd	-11010
▁baby	-11011
▁acoust	-11012
▁walking	-11013
▁confused	-11014
temp	-11015
▁Madagascar	-11016
▁Connecticut	-11017
(5	-11018
eta	-11019
▁Pearl	-11020
▁profit	-11021
▁neighbour	-11022
▁processing	-11023
▁pale	-11024
▁engage	-11025
▁secretary	-11026
97	-11027
▁knows	-11028
Ass	-11029
asm	-11030
▁Prop	-11031
anton	-11032
▁solar	-11033
▁holder	-11034
▁unclear	-11035
▁AP	-11036
gment	-11037
▁Full	-11038
▁Defence	-11039
Infl	-11040
▁plugin	-11041
▁Bosn	-11042
▁venue	-11043
▁Ontario	-11044
▁adds	-11045
▁deterior	-11046
▁overseas	-11047
▁concentration	-11048
orted	-11049
▁keys	-11050
▁Still	-11051
▁persons	-11052
▁Morrison	-11053
▁requests	-11054
nell	-11055
▁Jar	-11056
ultan	-11057
claimed	-11058
DER	-11059
boy	-11060
▁renov	-11061
▁Potter	-11062
artifact	-11063
orem	-11064
▁Cann	-11065
gradient	-11066
▁compounds	-11067
▁defences	-11068
-10	-11069
▁wond	-11070
▁disagre	-11071
▁erected	-11072
irts	-11073
>(	-11074
olves	-11075
▁settlers	-11076
▁Vi	-11077
▁prospect	-11078
Me	-11079
▁UE	-11080
▁NAS	-11081
▁les	-11082
▁Canterbury	-11083
▁danger	-11084
▁Bernard	-11085
TS	-11086
▁Spart	-11087
▁stretch	-11088
hav	-11089
▁Gre	-11090
uzzle	-11091
▁Hold	-11092
▁campaigns	-11093
▁originated	-11094
▁legislature	-11095
Sec	-11096
hers	-11097
▁Hur	-11098
▁organised	-11099
▁Jun	-11100
▁Allies	-11101
▁reader	-11102
▁highways	-11103
ensed	-11104
▁Bath	-11105
▁Has	-11106
▁approaches	-11107
1>	-11108
▁Meteor	-11109
▁wrestling	-11110
▁aftermath	-11111
NO	-11112
▁AM	-11113
▁prices	-11114
▁acknowledged	-11115
uese	-11116
▁expert	-11117
▁turret	-11118
▁birthday	-11119
IA	-11120
▁Ca	-11121
itudes	-11122
▁conspir	-11123
▁accomplish	-11124
▁Alb	-11125
▁radical	-11126
▁swit	-11127
username	-11128
▁striking	-11129
(2	-11130
▁Kan	-11131
ibilities	-11132
Tool	-11133
mund	-11134
▁Griff	-11135
▁soldier	-11136
▁travels	-11137
▁wealthy	-11138
▁graduated	-11139
▁continuous	-11140
▁Pruss	-11141
▁establishing	-11142
▁ski	-11143
▁origins	-11144
▁dissipated	-11145
▁Outstanding	-11146
▁din	-11147
▁logic	-11148
▁Napoleon	-11149
▁terminal	-11150
▁platforms	-11151
▁calculated	-11152
▁debt	-11153
▁bones	-11154
▁solutions	-11155
▁publications	-11156
yd	-11157
▁Boys	-11158
▁brill	-11159
▁Season	-11160
▁domain	-11161
ancouver	-11162
▁dressed	-11163
▁aggressive	-11164
▁complicated	-11165
[1	-11166
CON	-11167
arg	-11168
▁RE	-11169
▁anth	-11170
person	-11171
▁approaching	-11172
cour	-11173
▁coup	-11174
▁exceed	-11175
▁ongoing	-11176
▁explanation	-11177
▁Gate	-11178
▁mush	-11179
▁volumes	-11180
zh	-11181
].[	-11182
login	-11183
▁UEFA	-11184
▁runat	-11185
initions	-11186
▁terrain	-11187
▁supports	-11188
etres	-11189
▁Gary	-11190
▁Gene	-11191
▁Laur	-11192
▁pixel	-11193
▁raids	-11194
rank	-11195
▁/**	-11196
▁cannon	-11197
▁Vancouver	-11198
▁gathered	-11199
▁hypothes	-11200
▁hang	-11201
▁chapel	-11202
▁solved	-11203
▁thrown	-11204
▁Similarly	-11205
▁celebrated	-11206
▁Cov	-11207
berry	-11208
▁lying	-11209
▁specimen	-11210
▁Administration	-11211
▁Stu	-11212
▁env	-11213
▁bearing	-11214
abilities	-11215
▁theatrical	-11216
▁Py	-11217
▁Alice	-11218
▁jurisd	-11219
▁founding	-11220
▁subur	-11221
▁evacuated	-11222
Core	-11223
gged	-11224
▁maps	-11225
▁announcement	-11226
Hor	-11227
▁Beaut	-11228
▁Edin	-11229
▁Prot	-11230
▁visits	-11231
▁Jupiter	-11232
▁stationed	-11233
▁investigate	-11234
axy	-11235
▁Dall	-11236
▁memor	-11237
▁arrangements	-11238
atar	-11239
otte	-11240
▁Years	-11241
▁Pakistan	-11242
▁colleagues	-11243
Run	-11244
aja	-11245
aze	-11246
▁Charts	-11247
rik	-11248
▁catal	-11249
▁McM	-11250
layer	-11251
▁rede	-11252
▁centers	-11253
▁fantasy	-11254
▁rebellion	-11255
▁02	-11256
▁Fal	-11257
▁Princ	-11258
▁stuck	-11259
▁aerial	-11260
▁defending	-11261
▁processes	-11262
adier	-11263
venth	-11264
▁Picture	-11265
▁feeding	-11266
▁Mountains	-11267
▁obj	-11268
maps	-11269
▁Kon	-11270
▁beam	-11271
▁extrat	-11272
▁Champion	-11273
erg	-11274
acer	-11275
▁rub	-11276
▁caps	-11277
▁mini	-11278
▁accord	-11279
arr	-11280
hous	-11281
▁TNA	-11282
▁comed	-11283
▁Champions	-11284
▁strategic	-11285
rastructure	-11286
olly	-11287
▁duo	-11288
ennium	-11289
▁mysql	-11290
▁trough	-11291
87	-11292
▁troub	-11293
autical	-11294
▁conven	-11295
▁restore	-11296
▁magazines	-11297
irs	-11298
FFFF	-11299
▁155	-11300
▁que	-11301
ibraries	-11302
▁ArrayList	-11303
▁Portuguese	-11304
▁UP	-11305
inite	-11306
output	-11307
▁reveal	-11308
▁Bradman	-11309
▁lie	-11310
▁Books	-11311
▁Æthel	-11312
▁donated	-11313
▁Personal	-11314
▁extratropical	-11315
rior	-11316
▁Da	-11317
dis	-11318
▁1860	-11319
osexual	-11320
▁insects	-11321
▁youngest	-11322
▁scr	-11323
hears	-11324
otions	-11325
▁watershed	-11326
▁supplement	-11327
▁conventional	-11328
Dis	-11329
▁cock	-11330
▁glac	-11331
▁phrase	-11332
▁talent	-11333
Pr	-11334
Can	-11335
enna	-11336
itis	-11337
▁withdrawal	-11338
Host	-11339
pector	-11340
▁borders	-11341
iper	-11342
▁exhaust	-11343
▁tur	-11344
▁tubes	-11345
▁Triple	-11346
textColor	-11347
▁coff	-11348
▁legit	-11349
▁strongest	-11350
:4	-11351
▁args	-11352
▁battlecru	-11353
itage	-11354
▁modify	-11355
▁movies	-11356
▁exposure	-11357
rawn	-11358
▁Trophy	-11359
▁Section	-11360
DA	-11361
card	-11362
▁bond	-11363
dip	-11364
▁Neg	-11365
▁hier	-11366
servlet	-11367
▁educational	-11368
▁1893	-11369
▁tox	-11370
▁Dwight	-11371
▁markets	-11372
adal	-11373
▁challenged	-11374
▁Adv	-11375
▁Roc	-11376
▁cruc	-11377
exp	-11378
▁Afghan	-11379
▁weekly	-11380
▁Joy	-11381
umble	-11382
▁Element	-11383
▁Without	-11384
▁Reserve	-11385
▁Hampshire	-11386
▁Marvel	-11387
▁Fleming	-11388
▁Pam	-11389
Layer	-11390
▁Comput	-11391
▁papers	-11392
▁hydrogen	-11393
-8"?>	-11394
▁1896	-11395
▁Honor	-11396
▁slave	-11397
(@"	-11398
aman	-11399
▁Boe	-11400
▁merged	-11401
▁exclusive	-11402
▁Abd	-11403
Server	-11404
▁rounded	-11405
▁interact	-11406
.<	-11407
efined	-11408
normal	-11409
▁Register	-11410
▁relation	-11411
▁extending	-11412
▁rectangle	-11413
▁///	-11414
▁Bak	-11415
▁brig	-11416
▁Edinburgh	-11417
▁Isa	-11418
▁NCAA	-11419
▁dogs	-11420
▁prize	-11421
▁Beng	-11422
▁obsc	-11423
▁creek	-11424
▁haven	-11425
▁Oliver	-11426
▁TextView	-11427
artifactId	-11428
irates	-11429
▁requirement	-11430
roph	-11431
▁dubbed	-11432
▁accurate	-11433
▁unexpected	-11434
▁Pink	-11435
▁polar	-11436
▁stere	-11437
▁cleared	-11438
▁amid	-11439
▁Natural	-11440
▁emphasis	-11441
▁Ref	-11442
▁municipal	-11443
▁concentrated	-11444
▁experimental	-11445
▁navy	-11446
▁Overall	-11447
▁annually	-11448
▁Eu	-11449
▁Fa	-11450
▁tap	-11451
Close	-11452
▁furn	-11453
▁{"	-11454
▁Pic	-11455
▁Sud	-11456
▁1898	-11457
▁bone	-11458
▁teach	-11459
▁attending	-11460
▁Flying	-11461
cos	-11462
gins	-11463
ieth	-11464
▁seized	-11465
▁topped	-11466
mo	-11467
▁Mick	-11468
▁Boat	-11469
▁offense	-11470
▁champions	-11471
PG	-11472
obj	-11473
▁scores	-11474
▁Roberts	-11475
▁Fund	-11476
▁corps	-11477
▁hoping	-11478
▁productions	-11479
'];	-11480
athers	-11481
▁bacter	-11482
▁parody	-11483
▁'/	-11484
▁Column	-11485
▁Initial	-11486
Theme	-11487
▁reducing	-11488
▁Tu	-11489
▁Got	-11490
backs	-11491
▁gram	-11492
▁suspen	-11493
Values	-11494
▁anime	-11495
▁Market	-11496
lete	-11497
▁chest	-11498
▁trail	-11499
igenous	-11500
▁Yellow	-11501
▁locally	-11502
▁scattered	-11503
▁Pay	-11504
▁Argentina	-11505
▁improvement	-11506
▁basin	-11507
jax	-11508
▁Tig	-11509
▁Tob	-11510
▁Flow	-11511
▁confidence	-11512
Inflater	-11513
▁promotional	-11514
VI	-11515
▁Ralph	-11516
▁4,	-11517
▁Must	-11518
▁advertising	-11519
oria	-11520
▁Style	-11521
▁repeat	-11522
▁translated	-11523
aro	-11524
▁Deep	-11525
▁Result	-11526
children	-11527
▁employment	-11528
▁uncle	-11529
▁arrives	-11530
iffs	-11531
pert	-11532
onica	-11533
▁jury	-11534
▁fortress	-11535
▁Victorian	-11536
▁isot	-11537
▁hence	-11538
▁queen	-11539
idation	-11540
▁Gallery	-11541
▁comprom	-11542
▁dock	-11543
▁regime	-11544
▁flooded	-11545
▁Democrats	-11546
▁Professor	-11547
>";	-11548
▁Dod	-11549
parse	-11550
▁hole	-11551
▁replied	-11552
▁overwhel	-11553
▁intersects	-11554
▁photographs	-11555
uating	-11556
▁waste	-11557
▁Village	-11558
▁compiled	-11559
▁portrayal	-11560
▁Convention	-11561
▁conservation	-11562
bes	-11563
level	-11564
▁ceased	-11565
▁endors	-11566
▁attitude	-11567
▁Yorkshire	-11568
▁monarch	-11569
Transform	-11570
▁assembled	-11571
▁positioned	-11572
▁240	-11573
▁mal	-11574
▁Celt	-11575
▁Lloyd	-11576
72	-11577
Float	-11578
Buffer	-11579
▁pm	-11580
▁Layout	-11581
▁Training	-11582
▁magnitude	-11583
▁interpreted	-11584
aset	-11585
onian	-11586
▁blend	-11587
▁kings	-11588
▁Double	-11589
▁drinking	-11590
▁Tai	-11591
return	-11592
▁cards	-11593
▁posit	-11594
▁cousin	-11595
▁Jerry	-11596
▁mature	-11597
▁Christianity	-11598
fil	-11599
▁aes	-11600
▁Nothing	-11601
▁ctx	-11602
▁bishop	-11603
▁Brothers	-11604
aser	-11605
▁Maya	-11606
▁questioned	-11607
lier	-11608
▁1899	-11609
▁Phys	-11610
▁bund	-11611
kh	-11612
cow	-11613
▁ballad	-11614
0.5	-11615
ović	-11616
▁faces	-11617
▁swimming	-11618
▁Pa	-11619
▁ow	-11620
▁Craig	-11621
▁Chronicle	-11622
▁provincial	-11623
▁accompanying	-11624
▁spr	-11625
esture	-11626
ni	-11627
ür	-11628
▁underwent	-11629
ayan	-11630
owski	-11631
▁colours	-11632
▁Kam	-11633
anted	-11634
84	-11635
▁Shak	-11636
groupId	-11637
▁atomic	-11638
▁Support	-11639
▁succession	-11640
▁Apoll	-11641
▁stronger	-11642
▁commentary	-11643
SU	-11644
sets	-11645
▁cad	-11646
Cells	-11647
▁coat	-11648
▁dealing	-11649
▁imagery	-11650
▁representatives	-11651
▁loved	-11652
▁shares	-11653
▁Product	-11654
oca	-11655
ebug	-11656
edge	-11657
year	-11658
▁liberal	-11659
idal	-11660
arest	-11661
▁Marge	-11662
▁Finland	-11663
ScrollView	-11664
MM	-11665
="2	-11666
▁lawyer	-11667
▁circular	-11668
Static	-11669
▁beats	-11670
▁dread	-11671
▁thirteen	-11672
▁elig	-11673
Bounds	-11674
▁advised	-11675
▁blocked	-11676
▁exclusively	-11677
Bean	-11678
ulty	-11679
▁beneath	-11680
▁friendship	-11681
▁Eug	-11682
angel	-11683
▁empire	-11684
▁monaster	-11685
fr	-11686
nil	-11687
▁Collins	-11688
▁shifted	-11689
loc	-11690
CTION	-11691
▁Howe	-11692
Update	-11693
▁lawsu	-11694
▁Hawaii	-11695
▁delegate	-11696
▁electricity	-11697
▁Tak	-11698
▁arrow	-11699
▁acoustic	-11700
▁statistics	-11701
▁Mand	-11702
▁gender	-11703
lem	-11704
▁Upper	-11705
▁trading	-11706
False	-11707
▁bold	-11708
▁sang	-11709
▁unlik	-11710
▁Turner	-11711
▁daughters	-11712
▁devast	-11713
Dictionary	-11714
▁fundament	-11715
▁destroying	-11716
fox	-11717
Oper	-11718
▁sty	-11719
acles	-11720
Direct	-11721
assador	-11722
▁Blu	-11723
▁Wii	-11724
▁Mond	-11725
▁scar	-11726
mediate	-11727
00000000	-11728
(3	-11729
▁logo	-11730
▁penet	-11731
▁je	-11732
olen	-11733
▁Sug	-11734
▁tenure	-11735
▁surrendered	-11736
oda	-11737
toggle	-11738
▁talks	-11739
▁operator	-11740
Day	-11741
plex	-11742
▁leaf	-11743
▁tube	-11744
▁charter	-11745
▁incorrect	-11746
▁contribution	-11747
▁Burton	-11748
uras	-11749
▁Hardy	-11750
igrants	-11751
▁precipitation	-11752
ethel	-11753
riors	-11754
▁Jama	-11755
▁reduction	-11756
▁Queensland	-11757
This	-11758
▁Emer	-11759
ervlet	-11760
▁layers	-11761
▁Norfolk	-11762
▁Heritage	-11763
▁considers	-11764
tic	-11765
Tube	-11766
▁Amb	-11767
▁Osl	-11768
▁Appe	-11769
▁flows	-11770
▁Protest	-11771
▁mechanical	-11772
*)	-11773
svg	-11774
▁Eli	-11775
illes	-11776
▁Place	-11777
▁virus	-11778
▁Credits	-11779
▁Living	-11780
▁hybrid	-11781
▁varied	-11782
HTML	-11783
rooms	-11784
▁Glen	-11785
▁Tax	-11786
▁Case	-11787
▁reward	-11788
▁reinforcements	-11789
▁Dak	-11790
▁100%	-11791
▁banned	-11792
▁matplotlib	-11793
▁decay	-11794
▁Belgian	-11795
▁trigger	-11796
▁patients	-11797
▁reviewed	-11798
▁competing	-11799
ded	-11800
ocy	-11801
▁compr	-11802
▁Nicholas	-11803
{"	-11804
▁Medical	-11805
▁artificial	-11806
▁Hob	-11807
▁1850	-11808
navigation	-11809
▁Cricket	-11810
▁pel	-11811
▁raw	-11812
▁Thunder	-11813
iar	-11814
▁Vincent	-11815
▁Broadcast	-11816
▁Communist	-11817
'],	-11818
▁ui	-11819
Home	-11820
▁Core	-11821
▁Side	-11822
▁Rangers	-11823
▁10,	-11824
▁Ve	-11825
Drop	-11826
amas	-11827
▁Davies	-11828
▁worship	-11829
▁Draw	-11830
▁Liter	-11831
▁salary	-11832
ordinate	-11833
▁courses	-11834
▁profession	-11835
▁constraints	-11836
ensis	-11837
▁fulf	-11838
▁interaction	-11839
▁"#	-11840
▁Emmy	-11841
▁Malt	-11842
▁bath	-11843
▁soph	-11844
employ	-11845
▁fossil	-11846
moz	-11847
▁bot	-11848
▁traded	-11849
▁slavery	-11850
▁confusion	-11851
▁rendering	-11852
▁Transportation	-11853
Red	-11854
▁HD	-11855
changed	-11856
▁governments	-11857
▁presentation	-11858
navbar	-11859
▁sentence	-11860
▁architectural	-11861
Delegate	-11862
▁flowers	-11863
▁proceeded	-11864
▁radiation	-11865
▁tomb	-11866
▁rebuild	-11867
>:	-11868
tery	-11869
▁Rud	-11870
▁Dram	-11871
▁Donald	-11872
▁Catherine	-11873
WA	-11874
tool	-11875
▁uncom	-11876
checkbox	-11877
▁Liberal	-11878
▁compound	-11879
▁electrical	-11880
Donald	-11881
▁lighting	-11882
▁Bennett	-11883
▁Ni	-11884
site	-11885
ferences	-11886
▁boundaries	-11887
Part	-11888
▁clip	-11889
▁....	-11890
▁Guitar	-11891
▁Hughes	-11892
dropdown	-11893
▁thunder	-11894
▁developer	-11895
▁Curt	-11896
▁pink	-11897
▁Darwin	-11898
${	-11899
▁Fu	-11900
Body	-11901
legraph	-11902
▁earthquake	-11903
bus	-11904
▁colored	-11905
▁Pap	-11906
itarian	-11907
▁potentially	-11908
és	-11909
auto	-11910
▁rib	-11911
▁Prix	-11912
▁Environment	-11913
AX	-11914
▁boot	-11915
▁burned	-11916
▁amateur	-11917
▁practical	-11918
Last	-11919
pike	-11920
▁humor	-11921
▁da	-11922
▁1897	-11923
▁dual	-11924
enesis	-11925
description	-11926
▁displaying	-11927
etheless	-11928
▁songwriter	-11929
▁Mason	-11930
▁fourteen	-11931
▁investment	-11932
PAR	-11933
▁Month	-11934
▁Management	-11935
▁Lem	-11936
▁Chen	-11937
▁cursor	-11938
▁boilers	-11939
dist	-11940
▁moon	-11941
▁Peters	-11942
▁Harvard	-11943
▁entries	-11944
▁destroyer	-11945
▁inherited	-11946
!!	-11947
price	-11948
Radius	-11949
▁clicked	-11950
▁copper	-11951
▁nit	-11952
▁Saxon	-11953
▁ruler	-11954
▁Cameron	-11955
▁blind	-11956
▁sweet	-11957
▁voting	-11958
▁maintaining	-11959
Paint	-11960
▁Craw	-11961
▁Swiss	-11962
▁answers	-11963
▁conceived	-11964
oop	-11965
▁Veg	-11966
▁unp	-11967
▁append	-11968
▁ignored	-11969
Trig	-11970
▁Ali	-11971
▁Past	-11972
▁sixteen	-11973
Horizontal	-11974
▁experiments	-11975
▁Bald	-11976
▁cong	-11977
▁weigh	-11978
▁reorgan	-11979
▁shoulder	-11980
hum	-11981
Loader	-11982
▁tasks	-11983
▁survival	-11984
================	-11985
▁NO	-11986
▁naming	-11987
Wh	-11988
Appe	-11989
▁cuts	-11990
▁Moscow	-11991
▁flee	-11992
▁Grace	-11993
▁weird	-11994
istence	-11995
▁Oslo	-11996
▁sized	-11997
nik	-11998
▁Kate	-11999
cribed	-12000
▁labour	-12001
▁lights	-12002
▁Indonesia	-12003
▁customers	-12004
▁dimensions	-12005
▁intellectual	-12006
sson	-12007
▁retrieve	-12008
▁worn	-12009
▁Geoff	-12010
▁Intent	-12011
▁charity	-12012
▁dependent	-12013
▁Performance	-12014
mt	-12015
▁shaft	-12016
▁induct	-12017
▁unlikely	-12018
▁Pittsburgh	-12019
▁photography	-12020
▁Kl	-12021
atra	-12022
▁revised	-12023
uto	-12024
ificate	-12025
▁spoken	-12026
▁circles	-12027
▁dispers	-12028
▁velocity	-12029
▁qualifying	-12030
▁Gh	-12031
▁Nat	-12032
▁Harbor	-12033
internal	-12034
▁Fro	-12035
▁praising	-12036
ulates	-12037
uction	-12038
▁Until	-12039
stylesheet	-12040
▁opportunities	-12041
▁Cos	-12042
▁taxes	-12043
options	-12044
▁tactics	-12045
▁constitutional	-12046
▁tutorial	-12047
ci	-12048
-20	-12049
ashi	-12050
▁Sweet	-12051
VER	-12052
uty	-12053
itate	-12054
▁Half	-12055
▁Have	-12056
sun	-12057
▁fee	-12058
▁Terry	-12059
▁parks	-12060
▁fisher	-12061
▁grossing	-12062
▁installation	-12063
arks	-12064
▁Term	-12065
canvas	-12066
▁toured	-12067
uton	-12068
ingham	-12069
▁trunk	-12070
▁commanding	-12071
▁autumn	-12072
▁Tow	-12073
outed	-12074
▁Pack	-12075
Renderer	-12076
▁Antonio	-12077
.)	-12078
▁principles	-12079
▁lad	-12080
▁Alaska	-12081
▁enthusi	-12082
posed	-12083
▁Pictures	-12084
▁skill	-12085
RS	-12086
▁chron	-12087
▁tonnes	-12088
▁Therefore	-12089
▁commenced	-12090
RC	-12091
IL	-12092
cf	-12093
asa	-12094
cal	-12095
▁Bes	-12096
▁fasc	-12097
picker	-12098
▁uncon	-12099
▁Wallace	-12100
▁mistake	-12101
▁nautical	-12102
▁suddenly	-12103
▁valuable	-12104
▁transported	-12105
▁Rect	-12106
Process	-12107
▁attorney	-12108
▁legislative	-12109
vik	-12110
orry	-12111
▁Haz	-12112
▁Osc	-12113
▁crops	-12114
istration	-12115
full	-12116
▁109	-12117
▁saving	-12118
▁Stef	-12119
▁relocated	-12120
▁traveling	-12121
▁Vel	-12122
▁myster	-12123
▁competitive	-12124
Ext	-12125
ön	-12126
Comb	-12127
▁Jen	-12128
▁Orange	-12129
▁communist	-12130
▁proportion	-12131
▁pixels	-12132
▁YouTube	-12133
ht	-12134
▁Mi	-12135
cott	-12136
▁Farm	-12137
▁pressed	-12138
▁uranium	-12139
▁accessible	-12140
illo	-12141
▁convey	-12142
igg	-12143
▁melody	-12144
▁Twitter	-12145
▁minority	-12146
sq	-12147
TWC	-12148
▁JTWC	-12149
ffield	-12150
▁numer	-12151
▁receives	-12152
._	-12153
▁Luke	-12154
▁Syria	-12155
▁scenario	-12156
▁reinforced	-12157
??	-12158
▁Cass	-12159
▁grav	-12160
▁absent	-12161
Rem	-12162
Fill	-12163
▁Anim	-12164
izable	-12165
minster	-12166
▁Aftermath	-12167
▁surprised	-12168
▁characteristic	-12169
▁Clay	-12170
▁bott	-12171
/0	-12172
▁Sid	-12173
ambers	-12174
▁distant	-12175
exe	-12176
▁pap	-12177
▁revolt	-12178
▁sovere	-12179
▁portrait	-12180
▁displaced	-12181
▁commanders	-12182
▁plug	-12183
▁abuse	-12184
▁manga	-12185
▁SH	-12186
255,	-12187
▁toler	-12188
▁documented	-12189
▁tu	-12190
▁Larry	-12191
▁NSString	-12192
▁instructions	-12193
▁Officer	-12194
▁cartoon	-12195
▁preparing	-12196
2;	-12197
▁rocks	-12198
▁universal	-12199
▁withdrawn	-12200
▁blues	-12201
▁proof	-12202
▁Update	-12203
▁dischar	-12204
▁Together	-12205
▁involves	-12206
2_	-12207
▁Yam	-12208
Store	-12209
step	-12210
rates	-12211
▁Classic	-12212
▁Sheffield	-12213
▁1895	-12214
▁conce	-12215
urricanes	-12216
||	-12217
rien	-12218
▁nat	-12219
Output	-12220
▁Exper	-12221
▁Message	-12222
sa	-12223
▁Mayor	-12224
▁Eclipse	-12225
aha	-12226
avia	-12227
▁voices	-12228
▁provinces	-12229
73	-12230
beat	-12231
isons	-12232
▁Stra	-12233
▁Trail	-12234
▁promin	-12235
ationally	-12236
BL	-12237
lad	-12238
▁Nav	-12239
▁Israeli	-12240
▁physics	-12241
▁collections	-12242
Ob	-12243
▁Jefferson	-12244
▁fra	-12245
▁learns	-12246
▁Private	-12247
▁estimates	-12248
▁Jess	-12249
▁nerv	-12250
▁rejo	-12251
▁noise	-12252
▁editing	-12253
▁prototype	-12254
isive	-12255
anguage	-12256
▁^	-12257
ALSE	-12258
▁cha	-12259
▁Bryan	-12260
▁fails	-12261
urd	-12262
▁Actor	-12263
▁victim	-12264
▁UITableView	-12265
lesh	-12266
▁Ferr	-12267
▁Dallas	-12268
▁prisoner	-12269
▁Mey	-12270
▁Cyrus	-12271
▁Steel	-12272
▁marine	-12273
▁Johnston	-12274
▁Herald	-12275
▁Newton	-12276
▁carries	-12277
▁numbered	-12278
▁relatives	-12279
▁graduate	-12280
▁multiplayer	-12281
=1	-12282
Email	-12283
▁morph	-12284
▁Greater	-12285
▁warfare	-12286
▁Province	-12287
▁bull	-12288
▁Clarke	-12289
▁Malaysia	-12290
iko	-12291
▁Od	-12292
▁Chile	-12293
▁CGRect	-12294
▁brilliant	-12295
▁earn	-12296
annels	-12297
▁Austin	-12298
56	-12299
▁Nord	-12300
▁Movie	-12301
▁Guinea	-12302
▁Defense	-12303
▁recurring	-12304
▁Ta	-12305
▁rivalry	-12306
▁proposals	-12307
▁Ga	-12308
▁Wheel	-12309
▁herit	-12310
▁burning	-12311
uez	-12312
▁Daw	-12313
▁Owen	-12314
UIColor	-12315
▁inflic	-12316
▁observation	-12317
▁significance	-12318
ABLE	-12319
▁crest	-12320
▁spawn	-12321
▁equally	-12322
▁CA	-12323
.0.0	-12324
Null	-12325
▁Supp	-12326
▁kills	-12327
▁Fourth	-12328
▁airing	-12329
▁consolid	-12330
▁recovery	-12331
▁traditions	-12332
▁participation	-12333
▁tom	-12334
▁Wells	-12335
▁wished	-12336
▁intervention	-12337
▁transportation	-12338
▁OK	-12339
▁Neil	-12340
▁wrap	-12341
Session	-12342
▁rehears	-12343
▁Beginning	-12344
▁girlfriend	-12345
▁Eis	-12346
▁FBI	-12347
▁Falls	-12348
▁Muham	-12349
▁Woman	-12350
▁chore	-12351
▁sings	-12352
▁Culture	-12353
▁iPhone	-12354
▁Parsons	-12355
▁Formation	-12356
▁Ay	-12357
▁Eight	-12358
rup	-12359
▁Psy	-12360
▁jet	-12361
gence	-12362
▁march	-12363
▁rebels	-12364
▁gradient	-12365
▁medicine	-12366
atty	-12367
tension	-12368
▁Danish	-12369
olut	-12370
▁salv	-12371
▁Change	-12372
found	-12373
nergy	-12374
▁eating	-12375
."	-12376
▁Om	-12377
oret	-12378
ifice	-12379
rible	-12380
▁###	-12381
▁Chelsea	-12382
IM	-12383
fff	-12384
▁"/	-12385
▁Eve	-12386
ampton	-12387
▁inclusion	-12388
orge	-12389
▁Sout	-12390
▁riding	-12391
▁interviews	-12392
▁vulnerable	-12393
▁Pad	-12394
▁fest	-12395
▁cyclones	-12396
▁Authority	-12397
▁districts	-12398
▁Hav	-12399
▁Isl	-12400
▁Tru	-12401
▁Scar	-12402
▁pier	-12403
▁filmm	-12404
▁passion	-12405
▁advertis	-12406
▁protests	-12407
▁decorated	-12408
▁diagram	-12409
▁Brazilian	-12410
ulsion	-12411
▁Armstrong	-12412
▁variation	-12413
▁hind	-12414
▁Fisher	-12415
▁Quebec	-12416
▁accommodate	-12417
▁IP	-12418
eded	-12419
▁Orle	-12420
▁Sega	-12421
▁dense	-12422
▁cinema	-12423
▁deeply	-12424
▁suspic	-12425
▁explaining	-12426
eston	-12427
▁cabinet	-12428
uz	-12429
▁Eth	-12430
Touch	-12431
▁reforms	-12432
]];	-12433
landers	-12434
▁arguing	-12435
▁namespace	-12436
ums	-12437
▁Days	-12438
▁Search	-12439
▁towers	-12440
▁Edition	-12441
▁Greatest	-12442
▁Cathedral	-12443
▁principle	-12444
aters	-12445
▁camps	-12446
▁upset	-12447
▁throwing	-12448
▁thro	-12449
▁shallow	-12450
▁oriented	-12451
▁triangle	-12452
▁requiring	-12453
▁destination	-12454
▁communications	-12455
▁6.	-12456
ulus	-12457
chron	-12458
▁amph	-12459
▁Agency	-12460
▁drummer	-12461
▁commenting	-12462
▁grandfather	-12463
▁Rio	-12464
▁embed	-12465
ipality	-12466
ét	-12467
▁aft	-12468
▁racial	-12469
▁releg	-12470
▁Kaiser	-12471
▁"20	-12472
▁Plant	-12473
▁Store	-12474
▁AL	-12475
▁sad	-12476
ipper	-12477
wright	-12478
▁steep	-12479
▁petition	-12480
▁complement	-12481
▁1:	-12482
▁Et	-12483
▁Il	-12484
coll	-12485
▁congreg	-12486
enson	-12487
▁terr	-12488
▁varying	-12489
▁Gay	-12490
▁tickets	-12491
pin	-12492
random	-12493
napshot	-12494
aco	-12495
ometric	-12496
▁diverse	-12497
▁sponsored	-12498
LayoutParams	-12499
Auto	-12500
herent	-12501
▁McKin	-12502
▁Susan	-12503
▁noble	-12504
▁Inside	-12505
▁paras	-12506
▁mechanism	-12507
▁Constantin	-12508
parts	-12509
▁Salt	-12510
▁mood	-12511
overed	-12512
Password	-12513
▁emotion	-12514
▁tel	-12515
dt	-12516
onge	-12517
▁Hig	-12518
front	-12519
▁boost	-12520
▁guy	-12521
▁Mend	-12522
▁Reich	-12523
▁enact	-12524
wrapper	-12525
▁descent	-12526
++;	-12527
▁mate	-12528
icking	-12529
gom	-12530
affe	-12531
▁None	-12532
▁Room	-12533
▁clothes	-12534
▁promise	-12535
Configuration	-12536
▁Utah	-12537
▁Minor	-12538
▁Bitmap	-12539
▁centim	-12540
▁Orleans	-12541
▁airline	-12542
phan	-12543
▁Sac	-12544
erning	-12545
▁ST	-12546
▁Ara	-12547
▁addressed	-12548
▁javascript	-12549
admin	-12550
▁Kane	-12551
▁Titan	-12552
chi	-12553
save	-12554
▁Din	-12555
▁Ivan	-12556
▁liner	-12557
asha	-12558
nered	-12559
ounters	-12560
▁Harold	-12561
▁deleted	-12562
ATO	-12563
izz	-12564
clear	-12565
achute	-12566
▁Serbian	-12567
▁Cultural	-12568
63	-12569
▁liv	-12570
▁gene	-12571
▁prev	-12572
▁Globe	-12573
▁compat	-12574
▁DB	-12575
inis	-12576
ulum	-12577
▁Fat	-12578
ucker	-12579
▁tale	-12580
oi	-12581
▁Junior	-12582
▁evident	-12583
-11	-12584
▁Decl	-12585
▁marker	-12586
▁cathedral	-12587
▁conflicts	-12588
rus	-12589
▁Magn	-12590
▁Stre	-12591
▁lasting	-12592
▁concurrent	-12593
▁FIFA	-12594
▁beauty	-12595
▁floating	-12596
▁overlook	-12597
};	-12598
ixel	-12599
▁1861	-12600
icular	-12601
▁Horizontal	-12602
▁Ran	-12603
▁Example	-12604
▁Richmond	-12605
▁studying	-12606
▁theories	-12607
ando	-12608
▁charted	-12609
▁Electric	-12610
▁Muhammad	-12611
▁1889	-12612
castle	-12613
▁chronic	-12614
▁Pin	-12615
▁tours	-12616
▁Margin	-12617
▁Panzer	-12618
▁crashed	-12619
urred	-12620
▁bool	-12621
▁summit	-12622
ipher	-12623
Series	-12624
▁Opera	-12625
▁dwarf	-12626
▁printing	-12627
▁′	-12628
▁Pok	-12629
▁Orche	-12630
▁beaten	-12631
Abstract	-12632
▁Cad	-12633
▁fate	-12634
▁merc	-12635
keeper	-12636
Inv	-12637
▁1894	-12638
▁Cond	-12639
▁Fighter	-12640
▁preserve	-12641
cht	-12642
▁bell	-12643
Active	-12644
▁fires	-12645
▁binary	-12646
▁squadrons	-12647
▁declaration	-12648
BU	-12649
▁altitude	-12650
aiden	-12651
▁Tyler	-12652
▁hyper	-12653
address	-12654
IP	-12655
="100	-12656
Scale	-12657
▁grave	-12658
▁golden	-12659
▁structural	-12660
▁Constantine	-12661
only	-12662
▁McL	-12663
regular	-12664
rb	-12665
▁Pant	-12666
▁Branch	-12667
▁drafted	-12668
agg	-12669
▁jack	-12670
levard	-12671
▁depends	-12672
oids	-12673
▁pole	-12674
▁Members	-12675
▁operates	-12676
▁screenplay	-12677
▁Republicans	-12678
▁:)	-12679
▁Stars	-12680
▁explore	-12681
ribution	-12682
template	-12683
▁Kit	-12684
Arthur	-12685
▁Stuart	-12686
▁crimes	-12687
▁beating	-12688
▁patient	-12689
▁Something	-12690
▁Scientology	-12691
(10	-12692
abe	-12693
alls	-12694
cler	-12695
▁450	-12696
▁Ground	-12697
Selection	-12698
tw	-12699
▁1800	-12700
▁1891	-12701
▁wine	-12702
▁Trade	-12703
▁voyage	-12704
▁wouldn	-12705
born	-12706
session	-12707
▁Apollo	-12708
eto	-12709
▁dancers	-12710
▁holiday	-12711
/200	-12712
prop	-12713
Level	-12714
▁fert	-12715
▁persuaded	-12716
Util	-12717
Token	-12718
▁Leaf	-12719
▁benefits	-12720
▁civilians	-12721
▁agriculture	-12722
Sql	-12723
▁hills	-12724
▁reactions	-12725
▁substitute	-12726
▁oblig	-12727
GET	-12728
bie	-12729
▁104	-12730
▁parse	-12731
▁funded	-12732
▁detected	-12733
▁heritage	-12734
controller	-12735
▁administer	-12736
invoke	-12737
▁complained	-12738
▁ages	-12739
▁explicitly	-12740
,'	-12741
▁Sport	-12742
▁quarters	-12743
▁extensively	-12744
.2	-12745
Grad	-12746
▁Had	-12747
▁followers	-12748
uf	-12749
pine	-12750
▁XII	-12751
▁blog	-12752
▁ease	-12753
service	-12754
▁Buffalo	-12755
CP	-12756
zed	-12757
rics	-12758
▁sel	-12759
-05	-12760
doc	-12761
pes	-12762
▁facil	-12763
▁Indonesian	-12764
▁Arg	-12765
▁CBS	-12766
▁Put	-12767
▁Watch	-12768
▁unre	-12769
access	-12770
Mutable	-12771
▁devoted	-12772
▁elaborate	-12773
▁variations	-12774
heric	-12775
▁Quar	-12776
▁bigger	-12777
▁feared	-12778
▁commands	-12779
▁Amendment	-12780
▁infrastructure	-12781
HS	-12782
▁1892	-12783
▁aside	-12784
▁aligned	-12785
▁lifetime	-12786
2>	-12787
Total	-12788
▁keeps	-12789
▁Wonder	-12790
▁license	-12791
▁Kyle	-12792
iously	-12793
▁decrease	-12794
▁southeastern	-12795
▁Kap	-12796
▁Cardiff	-12797
▁sailing	-12798
lain	-12799
▁Symphony	-12800
onsin	-12801
▁sugar	-12802
▁Sultan	-12803
▁'0	-12804
alia	-12805
eping	-12806
upload	-12807
▁Grade	-12808
▁tribe	-12809
▁Brooks	-12810
▁worker	-12811
actor	-12812
setOn	-12813
▁Conservation	-12814
enos	-12815
▁Pel	-12816
ospel	-12817
▁Active	-12818
▁Hunter	-12819
▁accidentally	-12820
▁fame	-12821
amation	-12822
▁challenges	-12823
Mar	-12824
auge	-12825
Names	-12826
▁kidn	-12827
▁Danny	-12828
▁Johann	-12829
▁Nature	-12830
▁judges	-12831
▁recept	-12832
▁''	-12833
▁101	-12834
▁conj	-12835
▁viewing	-12836
▁gif	-12837
▁Burns	-12838
▁paths	-12839
▁sizes	-12840
textSize	-12841
▁researchers	-12842
isan	-12843
stroke	-12844
▁extinct	-12845
▁pregnant	-12846
▁mythology	-12847
▁storyboard	-12848
IB	-12849
▁Sox	-12850
▁knee	-12851
▁outd	-12852
▁prel	-12853
▁Mind	-12854
▁Ruth	-12855
▁Word	-12856
▁tooth	-12857
▁authorized	-12858
=>	-12859
DD	-12860
osaurs	-12861
usalem	-12862
▁merge	-12863
▁Observ	-12864
▁discontin	-12865
▁jurisdiction	-12866
▁Wisc	-12867
▁Zone	-12868
▁Manager	-12869
▁symbols	-12870
▁similarities	-12871
▁bears	-12872
stration	-12873
Comp	-12874
▁Mobile	-12875
▁Cavalry	-12876
62	-12877
SH	-12878
▁111	-12879
▁Fitz	-12880
▁Trad	-12881
▁forb	-12882
▁Title	-12883
▁Islamic	-12884
▁advancing	-12885
▁Justin	-12886
▁summar	-12887
▁gaining	-12888
ktop	-12889
▁Could	-12890
▁streak	-12891
▁writings	-12892
▁concerning	-12893
▁220	-12894
usters	-12895
lington	-12896
▁occurring	-12897
▁diplomatic	-12898
rg	-12899
othy	-12900
zier	-12901
bold	-12902
▁Actress	-12903
▁Metropolitan	-12904
fly	-12905
▁ok	-12906
▁Cer	-12907
▁gift	-12908
▁ties	-12909
EventArgs	-12910
Book	-12911
ummy	-12912
▁styl	-12913
▁rings	-12914
▁⁄	-12915
▁borrow	-12916
▁knocked	-12917
▁Airlines	-12918
▁embarked	-12919
▁employee	-12920
▁sculpture	-12921
olia	-12922
ributes	-12923
ptic	-12924
▁$('.	-12925
▁Boeing	-12926
▁educated	-12927
▁imported	-12928
▁Jerusalem	-12929
▁₹	-12930
▁Unit	-12931
unnels	-12932
▁integer	-12933
▁constitu	-12934
▁Abu	-12935
▁Bible	-12936
▁drown	-12937
▁Executive	-12938
▁considerably	-12939
gomery	-12940
▁tracked	-12941
▁Montgomery	-12942
Pop	-12943
urst	-12944
▁Circle	-12945
▁Header	-12946
=(	-12947
="3	-12948
eros	-12949
▁txt	-12950
Bound	-12951
▁gardens	-12952
▁customer	-12953
▁fragments	-12954
IZ	-12955
▁Mall	-12956
▁Walt	-12957
▁Legisl	-12958
▁Turkey	-12959
▁ib	-12960
▁Round	-12961
▁avail	-12962
EC	-12963
▁reass	-12964
▁sword	-12965
▁Barnes	-12966
▁Wisconsin	-12967
▁traditionally	-12968
94	-12969
users	-12970
▁Aber	-12971
▁Typhoon	-12972
▁reporting	-12973
▁Ship	-12974
▁tape	-12975
▁instances	-12976
▁sentenced	-12977
▁conversation	-12978
oft	-12979
▁IB	-12980
▁rivals	-12981
▁capturing	-12982
▁travelling	-12983
▁disturbance	-12984
▁Crus	-12985
▁Baron	-12986
▁Miles	-12987
Contact	-12988
▁favourite	-12989
▁Unf	-12990
▁Midd	-12991
thodox	-12992
▁checkbox	-12993
aque	-12994
▁byte	-12995
Login	-12996
▁Bert	-12997
▁Sean	-12998
Matrix	-12999
▁divorce	-13000
▁internet	-13001
▁cu	-13002
Save	-13003
▁nep	-13004
▁smoke	-13005
▁dispat	-13006
▁Facebook	-13007
LO	-13008
anne	-13009
osph	-13010
▁truly	-13011
▁tasked	-13012
rientation	-13013
▁predators	-13014
Net	-13015
▁avo	-13016
▁rever	-13017
▁priest	-13018
▁priority	-13019
▁Independence	-13020
▁Nas	-13021
▁particles	-13022
▁Progress	-13023
▁separation	-13024
ín	-13025
▁Than	-13026
isition	-13027
▁Century	-13028
occ	-13029
roud	-13030
▁Pul	-13031
▁declare	-13032
▁LE	-13033
▁fab	-13034
▁mixture	-13035
▁Attorney	-13036
Space	-13037
▁1888	-13038
▁Rogers	-13039
▁Saturn	-13040
▁villain	-13041
▁participants	-13042
uy	-13043
▁mud	-13044
▁Drag	-13045
▁tags	-13046
formed	-13047
connect	-13048
std	-13049
itic	-13050
amine	-13051
▁depicts	-13052
▁screens	-13053
▁virtually	-13054
:0;	-13055
ovak	-13056
▁Wes	-13057
▁Fish	-13058
▁Zero	-13059
unning	-13060
▁doors	-13061
Account	-13062
▁consumption	-13063
▁settlements	-13064
▁Vic	-13065
▁cow	-13066
▁dinner	-13067
▁honest	-13068
▁lighter	-13069
▁ine	-13070
static	-13071
▁garnered	-13072
Dec	-13073
▁Kid	-13074
▁Winn	-13075
▁knock	-13076
▁avoided	-13077
▁recruited	-13078
gal	-13079
gie	-13080
zing	-13081
arser	-13082
neath	-13083
▁1885	-13084
▁pill	-13085
▁Scots	-13086
▁Spider	-13087
rust	-13088
▁nut	-13089
graph	-13090
▁strand	-13091
▁anywhere	-13092
▁MacArthur	-13093
▁suspected	-13094
▁situations	-13095
▁commercially	-13096
rov	-13097
make	-13098
factory	-13099
▁supern	-13100
],[	-13101
▁Toy	-13102
▁seas	-13103
▁inning	-13104
▁Cemetery	-13105
▁proteins	-13106
,"	-13107
Intent	-13108
▁dimin	-13109
▁refit	-13110
Subview	-13111
▁hostile	-13112
▁rescued	-13113
▁thereby	-13114
▁disorder	-13115
▁restrictions	-13116
0.0	-13117
▁Aren	-13118
▁Bark	-13119
▁Draft	-13120
▁Chapel	-13121
▁mixing	-13122
▁payment	-13123
▁breath	-13124
TextBlock	-13125
▁editions	-13126
ocene	-13127
▁ashore	-13128
▁ramp	-13129
▁slide	-13130
▁prince	-13131
▁Sherman	-13132
▁marking	-13133
▁whenever	-13134
▁weakening	-13135
cliff	-13136
▁Ages	-13137
▁dial	-13138
▁Patri	-13139
▁dying	-13140
▁housed	-13141
rene	-13142
▁minim	-13143
▁Invest	-13144
▁batted	-13145
-1.	-13146
▁CH	-13147
▁dt	-13148
aping	-13149
agraph	-13150
system	-13151
▁Magic	-13152
▁panels	-13153
0,0,0,0,	-13154
▁");	-13155
▁wars	-13156
▁trace	-13157
▁populated	-13158
▁pump	-13159
▁Quest	-13160
▁cable	-13161
▁innoc	-13162
▁somehow	-13163
▁Christians	-13164
:=	-13165
▁disp	-13166
▁chase	-13167
▁inhib	-13168
▁escorted	-13169
▁gods	-13170
ortion	-13171
▁Judge	-13172
eclipse	-13173
process	-13174
▁assets	-13175
▁metric	-13176
▁Friends	-13177
▁volunteers	-13178
4"	-13179
▁Ted	-13180
▁vig	-13181
▁Evil	-13182
▁Tourn	-13183
▁drain	-13184
▁Baltic	-13185
▁restart	-13186
▁onCreate	-13187
2/	-13188
▁sav	-13189
▁aest	-13190
▁Pierre	-13191
▁compile	-13192
▁inherit	-13193
▁pursuit	-13194
sign	-13195
▁Kil	-13196
▁taste	-13197
▁tempo	-13198
▁sql	-13199
▁lift	-13200
▁Krist	-13201
▁NSLog	-13202
▁topic	-13203
▁colleg	-13204
▁decreased	-13205
idia	-13206
▁epic	-13207
▁Prest	-13208
▁descript	-13209
▁eventual	-13210
▁imprisoned	-13211
▁Prote	-13212
▁Leonard	-13213
▁machines	-13214
(_	-13215
UNT	-13216
empl	-13217
▁127	-13218
ellar	-13219
inery	-13220
▁Fern	-13221
▁Romney	-13222
▁suspension	-13223
Ge	-13224
ogan	-13225
offset	-13226
▁Cloud	-13227
▁Thames	-13228
▁teammate	-13229
▁warships	-13230
▁Architect	-13231
▁constantly	-13232
▁competitions	-13233
▁AC	-13234
▁False	-13235
aml	-13236
iors	-13237
▁1865	-13238
▁cash	-13239
▁Athens	-13240
▁stones	-13241
▁Barbara	-13242
Bag	-13243
▁Fight	-13244
▁Hearts	-13245
▁pointer	-13246
▁pursued	-13247
▁opposing	-13248
▁separately	-13249
▁struggling	-13250
ía	-13251
pol	-13252
▁plots	-13253
▁sharing	-13254
▁manifest	-13255
▁manufacturing	-13256
usr	-13257
▁Metro	-13258
▁Schum	-13259
▁Bright	-13260
▁revival	-13261
▁chemistry	-13262
▁examination	-13263
handle	-13264
▁hopes	-13265
▁census	-13266
)*	-13267
oples	-13268
▁chap	-13269
Vertex	-13270
▁renewed	-13271
▁Regional	-13272
▁ordinary	-13273
▁upcoming	-13274
▁orientation	-13275
nan	-13276
▁Reagan	-13277
▁Against	-13278
▁politicians	-13279
▁#>	-13280
▁holes	-13281
▁harbour	-13282
▁Cha	-13283
▁Shah	-13284
▁Stein	-13285
▁scrap	-13286
▁Comedy	-13287
▁abroad	-13288
▁stolen	-13289
▁beliefs	-13290
▁remembered	-13291
▁Hunt	-13292
▁Nancy	-13293
▁Surre	-13294
▁chrom	-13295
▁veteran	-13296
bc	-13297
escope	-13298
▁urged	-13299
gow	-13300
zes	-13301
▁NATO	-13302
▁grows	-13303
▁homosexual	-13304
intent	-13305
▁trailer	-13306
▁independently	-13307
▁Representatives	-13308
▁Beth	-13309
▁dozen	-13310
▁Others	-13311
▁apolog	-13312
▁comics	-13313
▁warned	-13314
▁unve	-13315
leased	-13316
▁vital	-13317
▁medals	-13318
▁universities	-13319
cr	-13320
akh	-13321
Month	-13322
▁cance	-13323
onation	-13324
="20	-13325
▁nurs	-13326
▁Neb	-13327
Radio	-13328
▁Personnel	-13329
▁135	-13330
▁Nova	-13331
▁mock	-13332
▁Sonic	-13333
checked	-13334
pending	-13335
▁promoting	-13336
▁illustrated	-13337
izers	-13338
piece	-13339
ridor	-13340
earing	-13341
aternal	-13342
▁organisms	-13343
▁Vo	-13344
▁interven	-13345
bi	-13346
ovic	-13347
▁fed	-13348
▁camer	-13349
▁Future	-13350
stage	-13351
▁Mans	-13352
▁Flore	-13353
▁Tribune	-13354
▁Voice	-13355
▁Energy	-13356
▁closure	-13357
▁nickname	-13358
super	-13359
▁Chad	-13360
▁Gran	-13361
▁loud	-13362
▁graphic	-13363
▁rushing	-13364
▁trapped	-13365
quiry	-13366
olutely	-13367
▁cattle	-13368
selector	-13369
▁confident	-13370
▁occasional	-13371
iche	-13372
▁sharks	-13373
▁Portugal	-13374
iah	-13375
iki	-13376
▁TR	-13377
ROUP	-13378
▁ble	-13379
▁navig	-13380
▁corners	-13381
▁pitcher	-13382
▁Ernest	-13383
▁tissue	-13384
▁compositions	-13385
▁-1	-13386
▁dust	-13387
▁Joint	-13388
▁Standard	-13389
▁Newcastle	-13390
Desc	-13391
▁dot	-13392
▁Iceland	-13393
▁costume	-13394
▁contracts	-13395
▁102	-13396
▁functionality	-13397
▁ly	-13398
▁Winds	-13399
▁anchor	-13400
▁positively	-13401
▁Dj	-13402
music	-13403
works	-13404
▁Clare	-13405
▁afford	-13406
▁bombardment	-13407
ective	-13408
ponents	-13409
▁diamond	-13410
▁celebration	-13411
▁Constantinople	-13412
pi	-13413
)),	-13414
oba	-13415
Root	-13416
▁Body	-13417
▁inhab	-13418
▁Motion	-13419
[2]	-13420
000,	-13421
▁Glas	-13422
▁Pete	-13423
▁guests	-13424
PF	-13425
JSON	-13426
ilda	-13427
▁Mail	-13428
▁genu	-13429
▁Lower	-13430
▁invaded	-13431
▁anticipated	-13432
▁findViewById	-13433
hn	-13434
▁directions	-13435
▁transmission	-13436
.1	-13437
enberg	-13438
▁juven	-13439
▁worse	-13440
▁Additional	-13441
▁regardless	-13442
isk	-13443
▁Skin	-13444
▁Charlotte	-13445
▁Heavyweight	-13446
ATA	-13447
▁expanding	-13448
▁somewhere	-13449
yll	-13450
legend	-13451
▁Cinem	-13452
▁impressive	-13453
but	-13454
else	-13455
▁cust	-13456
▁corporate	-13457
Sl	-13458
igious	-13459
▁brings	-13460
▁Liberty	-13461
[:	-13462
double	-13463
▁laugh	-13464
▁therm	-13465
▁ListView	-13466
▁Zh	-13467
colm	-13468
unit	-13469
▁Sey	-13470
▁José	-13471
▁Shep	-13472
perate	-13473
ipation	-13474
▁Merced	-13475
▁Affairs	-13476
eness	-13477
▁1864	-13478
icester	-13479
localhost	-13480
▁Laboratory	-13481
▁provisions	-13482
Hand	-13483
bing	-13484
▁nose	-13485
▁Youth	-13486
▁digit	-13487
cussion	-13488
quer	-13489
▁Gon	-13490
inated	-13491
NSString	-13492
▁Cornwall	-13493
▁boyfriend	-13494
▁$_	-13495
▁js	-13496
▁Saw	-13497
▁obst	-13498
▁goddess	-13499
▁Activity	-13500
▁biological	-13501
alg	-13502
▁troop	-13503
ariable	-13504
▁thorough	-13505
:/	-13506
INT	-13507
Exec	-13508
tools	-13509
before	-13510
▁brows	-13511
▁sinking	-13512
▁laboratory	-13513
▁disappeared	-13514
odium	-13515
▁rains	-13516
▁Region	-13517
▁bomber	-13518
▁Freedom	-13519
▁batteries	-13520
roe	-13521
▁'"	-13522
▁burial	-13523
▁scandal	-13524
ahl	-13525
orf	-13526
▁mit	-13527
slide	-13528
important	-13529
NER	-13530
▁DJ	-13531
▁Kill	-13532
▁skeleton	-13533
▁Left	-13534
▁encounters	-13535
XML	-13536
▁Sau	-13537
▁Gabri	-13538
Hg	-13539
:20	-13540
▁Tang	-13541
▁Filming	-13542
▁Ko	-13543
ousel	-13544
EditText	-13545
▁imposed	-13546
▁politician	-13547
▁progressed	-13548
▁dropping	-13549
én	-13550
Str	-13551
▁Hom	-13552
▁Sic	-13553
▁photos	-13554
restrial	-13555
▁af	-13556
itol	-13557
maven	-13558
riter	-13559
▁Bapt	-13560
▁Block	-13561
▁biography	-13562
▁libraries	-13563
▁parliamentary	-13564
cur	-13565
acht	-13566
▁Heb	-13567
▁Python	-13568
▁compre	-13569
▁Chester	-13570
▁Armenian	-13571
▁indigenous	-13572
▁Nam	-13573
▁hem	-13574
▁Grad	-13575
▁Oscar	-13576
▁Kenneth	-13577
▁threats	-13578
▁wound	-13579
▁Marines	-13580
▁Function	-13581
61	-13582
agles	-13583
▁wake	-13584
artime	-13585
2-	-13586
dim	-13587
overy	-13588
▁rgba	-13589
▁prest	-13590
uil	-13591
etary	-13592
▁Duch	-13593
▁Vick	-13594
▁Bears	-13595
▁deputy	-13596
pow	-13597
▁2;	-13598
▁Fab	-13599
▁Peng	-13600
▁codes	-13601
Progress	-13602
▁routing	-13603
▁switched	-13604
▁releasing	-13605
;"	-13606
EM	-13607
auc	-13608
ends	-13609
▁Syn	-13610
beans	-13611
thumb	-13612
▁reads	-13613
▁Malcolm	-13614
▁lacking	-13615
▁dropdown	-13616
▁volcanic	-13617
▁instruction	-13618
▁Antar	-13619
▁darker	-13620
▁Protestant	-13621
lims	-13622
▁978	-13623
▁Cinc	-13624
Canvas	-13625
▁rugby	-13626
▁swing	-13627
▁ascend	-13628
▁electro	-13629
▁Vertical	-13630
▁Đ	-13631
uns	-13632
▁Isaac	-13633
▁Pedro	-13634
▁routine	-13635
3]	-13636
IST	-13637
▁Career	-13638
▁Leicester	-13639
▁Meteorological	-13640
Music	-13641
▁tune	-13642
DidLoad	-13643
▁Dublin	-13644
▁Boulevard	-13645
▁Orchestra	-13646
▁Chamberlain	-13647
▁Chair	-13648
▁Spirit	-13649
▁UIView	-13650
▁companion	-13651
▁intermediate	-13652
▁ERA	-13653
▁Cena	-13654
▁aren	-13655
▁ward	-13656
▁Marshal	-13657
▁preview	-13658
▁engineers	-13659
▁Fly	-13660
▁spokes	-13661
▁murdered	-13662
▁depicting	-13663
▁evacuation	-13664
▁placeholder	-13665
▁dreadn	-13666
▁realistic	-13667
▁sib	-13668
▁killer	-13669
eda	-13670
▁abb	-13671
▁fru	-13672
▁Guild	-13673
execute	-13674
MenuItem	-13675
▁mentions	-13676
▁defenders	-13677
71	-13678
Plot	-13679
pense	-13680
store	-13681
▁Cand	-13682
▁shapes	-13683
▁ol	-13684
▁acre	-13685
▁plates	-13686
▁estimate	-13687
▁disappointed	-13688
▁1862	-13689
▁exile	-13690
dependency	-13691
▁speculation	-13692
Dr	-13693
▁Yes	-13694
▁marsh	-13695
▁buffer	-13696
▁exhibit	-13697
▁contacted	-13698
itchen	-13699
▁fetch	-13700
▁token	-13701
GM	-13702
▁lawsuit	-13703
>';	-13704
▁Hey	-13705
▁sle	-13706
footer	-13707
▁Islam	-13708
▁Which	-13709
▁angry	-13710
▁arbit	-13711
Section	-13712
▁Athletic	-13713
▁sheep	-13714
Servlet	-13715
▁industries	-13716
LC	-13717
ti	-13718
UTF	-13719
osion	-13720
acking	-13721
▁Bradley	-13722
▁Cyclone	-13723
▁nephew	-13724
ressional	-13725
hl	-13726
azon	-13727
▁speeds	-13728
▁strikes	-13729
▁totally	-13730
▁canceled	-13731
____	-13732
▁pig	-13733
iture	-13734
▁stim	-13735
▁debris	-13736
▁timber	-13737
▁focuses	-13738
▁Tournament	-13739
▁accomplished	-13740
****************	-13741
▁Slav	-13742
▁integrated	-13743
(1)	-13744
Ang	-13745
Doc	-13746
PRO	-13747
▁Single	-13748
▁concepts	-13749
▁developments	-13750
WS	-13751
keys	-13752
▁Dale	-13753
▁Glee	-13754
▁Tint	-13755
heimer	-13756
▁Eddie	-13757
Db	-13758
Cal	-13759
etta	-13760
▁Pra	-13761
▁eastward	-13762
CF	-13763
Sum	-13764
▁Luft	-13765
▁Serbia	-13766
▁kilogram	-13767
▁dynamically	-13768
iga	-13769
sim	-13770
▁mos	-13771
CGRect	-13772
▁Label	-13773
▁syntax	-13774
▁conquest	-13775
3:	-13776
gé	-13777
enz	-13778
▁Tir	-13779
▁cryst	-13780
▁resort	-13781
▁vicinity	-13782
▁listening	-13783
▁threatening	-13784
Que	-13785
Rep	-13786
▁230	-13787
ritic	-13788
▁frames	-13789
▁gallery	-13790
▁lyrical	-13791
▁definitely	-13792
▁Continental	-13793
ieg	-13794
held	-13795
sender	-13796
▁outcome	-13797
▁Archbishop	-13798
▁transformed	-13799
ju	-13800
▁ho	-13801
Next	-13802
plane	-13803
▁Mann	-13804
▁encom	-13805
▁Cincinn	-13806
▁calendar	-13807
▁territorial	-13808
▁VS	-13809
▁Rus	-13810
Empty	-13811
▁mounts	-13812
▁adapter	-13813
▁overlap	-13814
▁matching	-13815
If	-13816
{{	-13817
offic	-13818
▁Jake	-13819
▁grab	-13820
ellers	-13821
▁Alberta	-13822
▁Studies	-13823
▁handler	-13824
▁undertaken	-13825
▁fundamental	-13826
bach	-13827
mith	-13828
mount	-13829
▁luck	-13830
▁Gates	-13831
▁Given	-13832
▁breast	-13833
▁instant	-13834
▁thunderstorm	-13835
▁revolutionary	-13836
92	-13837
▁("	-13838
▁php	-13839
ierce	-13840
insert	-13841
▁ghost	-13842
▁forget	-13843
Report	-13844
▁stern	-13845
▁connects	-13846
uka	-13847
aneous	-13848
▁mammals	-13849
▁EX	-13850
▁penn	-13851
▁Tommy	-13852
▁arose	-13853
▁elite	-13854
▁humanity	-13855
▁Technology	-13856
▁touchdowns	-13857
▁championships	-13858
EE	-13859
csv	-13860
▁puts	-13861
▁draws	-13862
▁entert	-13863
▁convicted	-13864
▁Rear	-13865
▁heir	-13866
▁Micha	-13867
▁Villa	-13868
entieth	-13869
iminary	-13870
▁preceding	-13871
some	-13872
itime	-13873
▁Cort	-13874
▁Joan	-13875
▁disb	-13876
▁Gibral	-13877
▁Uk	-13878
(100	-13879
▁diver	-13880
▁inaugural	-13881
opic	-13882
▁oct	-13883
Controls	-13884
▁farmers	-13885
▁invalid	-13886
▁infection	-13887
▁helicopter	-13888
▁".	-13889
linear	-13890
▁Malta	-13891
▁TABLE	-13892
afe	-13893
▁Shar	-13894
▁ferry	-13895
▁Springfield	-13896
bone	-13897
oup	-13898
▁1840	-13899
▁butter	-13900
▁comparing	-13901
origin	-13902
▁metre	-13903
▁mansion	-13904
▁Starting	-13905
▁collision	-13906
xs	-13907
ido	-13908
▁repos	-13909
▁Muslims	-13910
▁Yugoslavia	-13911
=0.	-13912
annon	-13913
▁asserted	-13914
▁targeted	-13915
------------	-13916
▁Organization	-13917
dk	-13918
▁-(	-13919
▁Sql	-13920
onial	-13921
▁admir	-13922
▁voters	-13923
▁feathers	-13924
Tunes	-13925
▁Gibraltar	-13926
▁predominantly	-13927
hide	-13928
▁Ric	-13929
▁Maine	-13930
▁curved	-13931
Operation	-13932
▁fo	-13933
wind	-13934
▁finger	-13935
▁Afghanistan	-13936
▁collaborated	-13937
▁],	-13938
arded	-13939
▁fant	-13940
▁Tests	-13941
▁enorm	-13942
through	-13943
▁Wagner	-13944
▁Waters	-13945
▁channels	-13946
▁pointing	-13947
▁Friedrich	-13948
▁%>%	-13949
▁Cell	-13950
Visual	-13951
▁parking	-13952
lar	-13953
▁bowl	-13954
▁paying	-13955
▁Version	-13956
▁absorbed	-13957
▁outstanding	-13958
▁Ot	-13959
auth	-13960
emen	-13961
oirs	-13962
atoon	-13963
ewise	-13964
▁Hood	-13965
▁INTO	-13966
▁Sans	-13967
ischer	-13968
instein	-13969
▁irregular	-13970
▁Cincinnati	-13971
cca	-13972
dev	-13973
alin	-13974
▁1);	-13975
▁mad	-13976
▁Maybe	-13977
▁Shiva	-13978
▁Comics	-13979
▁Taiwan	-13980
▁quoted	-13981
▁castles	-13982
2'	-13983
assy	-13984
▁INS	-13985
aunch	-13986
stral	-13987
▁Reed	-13988
▁hint	-13989
▁laps	-13990
▁Hull	-13991
summary	-13992
▁curves	-13993
▁genres	-13994
▁Parks	-13995
getString	-13996
▁peninsula	-13997
month	-13998
▁patch	-13999
▁Ancient	-14000
▁allocated	-14001
EL	-14002
▁execut	-14003
▁145	-14004
inline	-14005
season	-14006
▁Robin	-14007
▁Hispan	-14008
▁Angelou	-14009
dir	-14010
▁";	-14011
oBox	-14012
oved	-14013
uter	-14014
▁aqu	-14015
▁lin	-14016
▁quit	-14017
▁Price	-14018
▁antib	-14019
▁bytes	-14020
▁Alliance	-14021
▁Vegas	-14022
▁breeds	-14023
▁sentiment	-14024
Pad	-14025
hero	-14026
▁Tit	-14027
▁1887	-14028
▁Brid	-14029
▁Maced	-14030
▁pleased	-14031
=[	-14032
ré	-14033
asi	-14034
ancel	-14035
▁zoom	-14036
▁Normandy	-14037
▁relieved	-14038
asury	-14039
fetch	-14040
world	-14041
del	-14042
rogen	-14043
▁guys	-14044
▁tent	-14045
enburg	-14046
▁Shield	-14047
▁lengths	-14048
▁sustain	-14049
3>	-14050
UC	-14051
▁Break	-14052
▁Nathan	-14053
▁dislik	-14054
▁Talk	-14055
▁lover	-14056
▁offshore	-14057
vironments	-14058
▁introduce	-14059
▁joins	-14060
▁varies	-14061
▁roadway	-14062
▁presents	-14063
SO	-14064
▁Poké	-14065
▁blast	-14066
▁hover	-14067
▁focusing	-14068
82	-14069
▁Mut	-14070
Settings	-14071
▁faculty	-14072
▁nevertheless	-14073
Person	-14074
▁Edmund	-14075
........	-14076
▁Computer	-14077
▁Madison	-14078
▁reporter	-14079
VA	-14080
osc	-14081
}">	-14082
ailing	-14083
▁Olivia	-14084
▁clergy	-14085
▁marched	-14086
;'	-14087
abet	-14088
oder	-14089
▁Occ	-14090
ringe	-14091
▁1863	-14092
▁1886	-14093
▁mild	-14094
▁flags	-14095
Details	-14096
original	-14097
▁variant	-14098
▁measuring	-14099
chen	-14100
exec	-14101
▁Dud	-14102
▁Lud	-14103
▁Sex	-14104
▁recognize	-14105
▁JavaScript	-14106
▁locomotives	-14107
Mark	-14108
▁Eld	-14109
overty	-14110
▁bounds	-14111
▁python	-14112
▁prosper	-14113
bt	-14114
hart	-14115
▁Rush	-14116
▁VIII	-14117
▁arena	-14118
▁balls	-14119
▁icons	-14120
▁telephone	-14121
▁Conservative	-14122
▁gam	-14123
▁Burke	-14124
▁loose	-14125
▁Former	-14126
▁Mercury	-14127
umberland	-14128
▁DateTime	-14129
mel	-14130
="">	-14131
▁-0.	-14132
▁Kaz	-14133
▁Salv	-14134
▁gear	-14135
▁Leeds	-14136
▁coordinate	-14137
oric	-14138
radio	-14139
▁Chap	-14140
▁Orton	-14141
▁Julian	-14142
▁Gregory	-14143
▁'-	-14144
lett	-14145
rels	-14146
▁Hus	-14147
▁prox	-14148
Player	-14149
▁solely	-14150
▁scripts	-14151
▁Brooklyn	-14152
▁stability	-14153
▁absolutely	-14154
▁consideration	-14155
▁ion	-14156
▁bapt	-14157
▁privile	-14158
▁Schumacher	-14159
bg	-14160
1',	-14161
phal	-14162
▁END	-14163
▁JNA	-14164
▁cmd	-14165
▁vec	-14166
▁Pick	-14167
▁Ghost	-14168
▁iTunes	-14169
hill	-14170
▁atop	-14171
Results	-14172
▁inserted	-14173
▁summary	-14174
▁Revolutionary	-14175
gary	-14176
▁Alt	-14177
ushes	-14178
▁repr	-14179
UIView	-14180
▁Serge	-14181
itional	-14182
▁builder	-14183
▁assuming	-14184
▁regulations	-14185
acular	-14186
▁associate	-14187
▁celebrate	-14188
▁sensitive	-14189
ikes	-14190
king	-14191
▁Crow	-14192
delete	-14193
▁tough	-14194
issioned	-14195
▁organic	-14196
})	-14197
▁unn	-14198
imony	-14199
▁subsc	-14200
▁armoured	-14201
▁attraction	-14202
▁deployment	-14203
▁Burg	-14204
▁Soph	-14205
:00:00	-14206
ployee	-14207
▁Father	-14208
▁distinguish	-14209
None	-14210
▁Mix	-14211
▁patri	-14212
▁Dennis	-14213
▁fungus	-14214
▁printf	-14215
▁faction	-14216
▁Princeton	-14217
▁Historical	-14218
▁emission	-14219
▁inducted	-14220
▁conspiracy	-14221
▁challenging	-14222
▁ˈ	-14223
Found	-14224
istical	-14225
▁runner	-14226
▁constructor	-14227
▁progressive	-14228
tk	-14229
});	-14230
hall	-14231
▁Aub	-14232
▁Equ	-14233
▁Hubb	-14234
▁Helen	-14235
▁swept	-14236
▁enhanced	-14237
="#"	-14238
▁Comb	-14239
▁flour	-14240
▁blamed	-14241
▁conced	-14242
▁cruise	-14243
▁romance	-14244
▁McKinley	-14245
▁username	-14246
▁Nation	-14247
▁Tigers	-14248
▁Vector	-14249
▁republic	-14250
▁assignment	-14251
Seg	-14252
▁MLB	-14253
▁drunk	-14254
▁Browns	-14255
▁painter	-14256
▁winners	-14257
▁Unfortunately	-14258
83	-14259
▁Solar	-14260
▁aggregate	-14261
▁witnesses	-14262
ULT	-14263
▁Leo	-14264
▁spell	-14265
▁scales	-14266
pts	-14267
task	-14268
▁len	-14269
media	-14270
▁Coal	-14271
angles	-14272
▁eagle	-14273
▁submer	-14274
▁É	-14275
10.	-14276
▁dece	-14277
▁environments	-14278
▁disk	-14279
▁Stage	-14280
▁publicity	-14281
▁submarines	-14282
▁necessarily	-14283
▁NASA	-14284
▁lung	-14285
▁shelter	-14286
▁convince	-14287
▁magnetic	-14288
▁Fifth	-14289
▁Barcel	-14290
▁refuses	-14291
emo	-14292
omon	-14293
Entry	-14294
▁1884	-14295
▁Site	-14296
▁axes	-14297
plugin	-14298
▁verses	-14299
▁Herbert	-14300
▁recruit	-14301
▁managing	-14302
▁yourself	-14303
8)	-14304
▁IF	-14305
▁clause	-14306
Snapshot	-14307
▁Musical	-14308
▁retreated	-14309
-0.	-14310
aku	-14311
udent	-14312
▁Morning	-14313
▁Political	-14314
DT	-14315
▁Bass	-14316
▁Epis	-14317
▁hell	-14318
▁sulf	-14319
▁canon	-14320
DataGrid	-14321
▁knowing	-14322
▁fortifications	-14323
ben	-14324
igo	-14325
▁Arc	-14326
▁harsh	-14327
▁Glasgow	-14328
▁elevated	-14329
Div	-14330
▁Menu	-14331
▁inHg	-14332
pleted	-14333
▁Hubbard	-14334
▁condemned	-14335
▁physically	-14336
ennial	-14337
▁flown	-14338
▁preventing	-14339
feld	-14340
▁unh	-14341
▁gentle	-14342
placement	-14343
▁insurance	-14344
▁referenced	-14345
▁underneath	-14346
iden	-14347
▁750	-14348
▁Esc	-14349
oming	-14350
▁adopt	-14351
▁roster	-14352
▁Crystal	-14353
▁generic	-14354
▁Adventure	-14355
Pol	-14356
olor	-14357
▁Effect	-14358
▁signals	-14359
NC	-14360
▁Nass	-14361
▁rice	-14362
▁spots	-14363
▁Canucks	-14364
▁disbanded	-14365
files	-14366
force	-14367
▁Conn	-14368
▁Devil	-14369
▁prompting	-14370
▁resignation	-14371
2",	-14372
▁Fam	-14373
▁verte	-14374
▁fossils	-14375
▁examined	-14376
▁directing	-14377
ea	-14378
▁VAL	-14379
author	-14380
▁Gothic	-14381
▁refresh	-14382
▁studios	-14383
iffer	-14384
▁Stop	-14385
▁bore	-14386
▁Smack	-14387
▁bench	-14388
▁distinction	-14389
non	-14390
▁7.	-14391
▁EC	-14392
Spot	-14393
▁Nad	-14394
▁melod	-14395
▁clouds	-14396
▁torpedoes	-14397
vo	-14398
▁Spect	-14399
▁indirect	-14400
▁rebounds	-14401
=$	-14402
▁0.00	-14403
▁Vern	-14404
▁Strong	-14405
▁Holland	-14406
▁Weather	-14407
▁compare	-14408
▁Composition	-14409
▁dimensional	-14410
rass	-14411
▁Bour	-14412
▁Myst	-14413
▁fluid	-14414
▁jersey	-14415
▁searched	-14416
▁regiments	-14417
Fore	-14418
▁Brah	-14419
Execute	-14420
▁lesser	-14421
▁Montana	-14422
▁cluster	-14423
▁Phillies	-14424
▁belonging	-14425
▁delegates	-14426
▁encompass	-14427
▁implements	-14428
▁consistently	-14429
vals	-14430
▁Beau	-14431
▁peoples	-14432
▁consequence	-14433
eward	-14434
tbody	-14435
▁Isle	-14436
▁walked	-14437
▁tourist	-14438
▁creature	-14439
▁diversity	-14440
nda	-14441
olo	-14442
auded	-14443
sworth	-14444
▁BCE	-14445
▁Rou	-14446
racks	-14447
▁Alpha	-14448
inguished	-14449
▁SO	-14450
sort	-14451
▁Sep	-14452
▁triumph	-14453
▁Theodore	-14454
▁reconstruction	-14455
▁reh	-14456
▁Percy	-14457
Checked	-14458
▁Tintin	-14459
▁eligible	-14460
▁historically	-14461
onso	-14462
▁Read	-14463
▁Celtic	-14464
▁flower	-14465
▁upgrade	-14466
▁Territory	-14467
▁Millennium	-14468
▁scholarship	-14469
abad	-14470
▁CEO	-14471
▁jew	-14472
▁anyway	-14473
▁themed	-14474
▁venues	-14475
▁Westminster	-14476
▁demonstrate	-14477
)]	-14478
hemes	-14479
inate	-14480
▁1877	-14481
▁Access	-14482
▁judicial	-14483
▁yd	-14484
Spec	-14485
ampa	-14486
Device	-14487
▁Appro	-14488
▁favored	-14489
▁welcome	-14490
▁underlying	-14491
▁RI	-14492
aton	-14493
esome	-14494
AtIndex	-14495
WriteLine	-14496
▁["	-14497
▁Window	-14498
▁onwards	-14499
▁exterior	-14500
▁contribute	-14501
▁permanently	-14502
opard	-14503
▁Denver	-14504
▁angular	-14505
▁steadily	-14506
inus	-14507
▁Poe	-14508
▁vit	-14509
▁1876	-14510
▁stom	-14511
Editor	-14512
▁agrees	-14513
▁vertex	-14514
▁Mercedes	-14515
avian	-14516
▁Mega	-14517
ishops	-14518
▁Athen	-14519
▁flesh	-14520
▁Austro	-14521
▁Manuel	-14522
▁surprising	-14523
▁LP	-14524
▁appreciate	-14525
▁Wa	-14526
▁Calc	-14527
▁Yard	-14528
abling	-14529
▁Ronald	-14530
▁Basketball	-14531
)"	-14532
orus	-14533
▁Cox	-14534
▁mim	-14535
▁rook	-14536
▁snipp	-14537
▁finest	-14538
▁slower	-14539
▁Currently	-14540
▁automatic	-14541
12,	-14542
URE	-14543
split	-14544
▁annex	-14545
▁versus	-14546
▁Theater	-14547
▁contrad	-14548
▁monster	-14549
-->	-14550
▁hosp	-14551
▁repet	-14552
▁currency	-14553
▁naturally	-14554
▁functional	-14555
agi	-14556
vor	-14557
▁[]	-14558
▁Speed	-14559
StaticResource	-14560
VC	-14561
▁Seb	-14562
▁Thr	-14563
▁walks	-14564
▁wartime	-14565
▁acclaimed	-14566
93	-14567
atts	-14568
oves	-14569
▁kids	-14570
▁Index	-14571
▁Albany	-14572
▁divide	-14573
▁thoughts	-14574
▁tracking	-14575
▁Everything	-14576
pted	-14577
▁Food	-14578
▁trio	-14579
icator	-14580
related	-14581
▁thickness	-14582
Math	-14583
▁Glou	-14584
▁monastery	-14585
▁spacecraft	-14586
▁deliberately	-14587
▁Bris	-14588
▁cotton	-14589
▁commitment	-14590
umi	-14591
blank	-14592
▁hurt	-14593
▁Xcode	-14594
▁Ottawa	-14595
▁agencies	-14596
▁Character	-14597
▁Hok	-14598
▁Load	-14599
▁cubic	-14600
▁Bulgarian	-14601
▁Gloucester	-14602
▁kilometers	-14603
geon	-14604
▁Rav	-14605
▁lots	-14606
▁cache	-14607
▁Rivers	-14608
Kit	-14609
immer	-14610
Delete	-14611
▁Angle	-14612
▁Chuck	-14613
▁gusts	-14614
yt	-14615
1</	-14616
bage	-14617
▁Bud	-14618
▁pupp	-14619
▁Carlos	-14620
▁decisive	-14621
▁incidents	-14622
▁participating	-14623
.'	-14624
sin	-14625
yan	-14626
▁Alam	-14627
▁Lamb	-14628
▁Verm	-14629
AtIndexPath	-14630
anka	-14631
▁Berm	-14632
Native	-14633
racted	-14634
▁motif	-14635
▁numpy	-14636
▁Global	-14637
▁translate	-14638
▁conducting	-14639
ounce	-14640
rians	-14641
alysis	-14642
▁creatures	-14643
▁exercises	-14644
RT	-14645
255	-14646
arc	-14647
isting	-14648
▁Nevada	-14649
▁opined	-14650
▁silent	-14651
▁outline	-14652
▁revenge	-14653
▁Barcelona	-14654
▁Shin	-14655
omical	-14656
▁Rosen	-14657
Interface	-14658
▁cemetery	-14659
▁masc	-14660
overflow	-14661
▁wondering	-14662
▁proclaimed	-14663
▁1830	-14664
▁Abra	-14665
▁Caes	-14666
▁Pokémon	-14667
▁reminis	-14668
stack	-14669
▁Milan	-14670
▁backup	-14671
Directory	-14672
Constraints	-14673
Graph	-14674
▁Derby	-14675
▁Michaels	-14676
▁Operations	-14677
▁encourage	-14678
uid	-14679
▁Wis	-14680
▁embar	-14681
TEXT	-14682
asia	-14683
▁Kub	-14684
▁1875	-14685
▁Delta	-14686
▁rebel	-14687
contact	-14688
TI	-14689
▁Level	-14690
▁heavier	-14691
▁mysterious	-14692
▁demographic	-14693
MC	-14694
itars	-14695
▁insu	-14696
Gradient	-14697
▁Cardinals	-14698
BB	-14699
FS	-14700
ocom	-14701
▁Sri	-14702
▁Rena	-14703
▁lakes	-14704
▁sketch	-14705
▁weakness	-14706
shi	-14707
▁Enix	-14708
▁remake	-14709
▁realize	-14710
ighed	-14711
▁Metac	-14712
▁overcome	-14713
▁theaters	-14714
▁Mak	-14715
rises	-14716
▁1883	-14717
lishing	-14718
▁permit	-14719
▁Raymond	-14720
▁landmark	-14721
▁ceremonies	-14722
▁complimented	-14723
▁Colin	-14724
▁Lords	-14725
▁Squad	-14726
▁borough	-14727
▁Churchill	-14728
▁Professional	-14729
▁literally	-14730
81	-14731
▁nam	-14732
▁ORDER	-14733
▁Foster	-14734
▁Diamond	-14735
▁playable	-14736
rium	-14737
reshold	-14738
▁Paraly	-14739
▁bowled	-14740
▁Parkway	-14741
▁Sciences	-14742
▁continental	-14743
▁preparations	-14744
▁Chem	-14745
▁Romanian	-14746
6/	-14747
ribe	-14748
▁1881	-14749
▁Berg	-14750
▁Emma	-14751
▁Archae	-14752
iang	-14753
▁rider	-14754
▁coaches	-14755
▁martial	-14756
▁onClick	-14757
▁shipped	-14758
▁doctrine	-14759
▁quantity	-14760
▁achievements	-14761
▁southwestern	-14762
▁210	-14763
▁Hat	-14764
▁Lie	-14765
ookie	-14766
imeter	-14767
▁Belie	-14768
▁Steam	-14769
]]	-14770
▁Syl	-14771
▁Hein	-14772
▁Shan	-14773
▁combine	-14774
▁hypothesis	-14775
actic	-14776
bounds	-14777
▁Wings	-14778
UIImage	-14779
▁involve	-14780
chw	-14781
ding	-14782
▁Want	-14783
▁argue	-14784
▁possessed	-14785
▁initiative	-14786
▁RNA	-14787
▁Machine	-14788
▁ceiling	-14789
▁gravity	-14790
▁staying	-14791
▁Database	-14792
▁Hi	-14793
▁NL	-14794
Unit	-14795
▁Voy	-14796
Price	-14797
▁moist	-14798
▁Planet	-14799
isations	-14800
▁deposits	-14801
lake	-14802
▁Soft	-14803
alties	-14804
▁Powell	-14805
▁revealing	-14806
Local	-14807
alert	-14808
ashire	-14809
▁Blair	-14810
▁staged	-14811
▁Middles	-14812
DataSource	-14813
▁SmackDown	-14814
▁attachment	-14815
▁achievement	-14816
pdf	-14817
Mult	-14818
arthy	-14819
▁mant	-14820
▁Drake	-14821
▁honey	-14822
▁spite	-14823
▁sponsor	-14824
▁generating	-14825
:30	-14826
▁{{	-14827
▁manages	-14828
▁airborne	-14829
your	-14830
ettes	-14831
ppers	-14832
▁Arena	-14833
▁Venice	-14834
▁corruption	-14835
obs	-14836
▁Aqu	-14837
▁Kepler	-14838
▁actively	-14839
▁redirect	-14840
▁Richardson	-14841
▁critically	-14842
▁propaganda	-14843
▁unsuccessfully	-14844
▁Hum	-14845
▁dise	-14846
circle	-14847
▁aided	-14848
▁locate	-14849
▁manual	-14850
▁Jamaica	-14851
▁dialect	-14852
▁Northwest	-14853
▁depiction	-14854
▁vegetation	-14855
amera	-14856
▁dive	-14857
▁Duncan	-14858
▁criteria	-14859
▁emerging	-14860
▁hardware	-14861
▁rational	-14862
▁ministers	-14863
▁phenomenon	-14864
pa	-14865
awk	-14866
arus	-14867
▁270	-14868
stock	-14869
▁allied	-14870
▁guards	-14871
▁Paralymp	-14872
▁orchestral	-14873
ugh	-14874
heads	-14875
▁1869	-14876
▁Somet	-14877
▁Urban	-14878
▁gates	-14879
▁summon	-14880
▁Calgary	-14881
▁eliminate	-14882
▁comprising	-14883
▁autobiography	-14884
▁consciousness	-14885
6)	-14886
DP	-14887
▁Pi	-14888
▁pic	-14889
agonal	-14890
▁gauge	-14891
▁finance	-14892
▁improving	-14893
▁migration	-14894
▁philosopher	-14895
▁contributing	-14896
▁expectations	-14897
▁AA	-14898
appa	-14899
icus	-14900
xxxx	-14901
▁Dock	-14902
▁Gang	-14903
▁epit	-14904
▁Floyd	-14905
atorial	-14906
▁crucial	-14907
▁tourists	-14908
▁Basically	-14909
="<	-14910
mour	-14911
▁Kos	-14912
▁networks	-14913
▁Lancashire	-14914
_1	-14915
▁adequ	-14916
▁Desert	-14917
▁Ferdin	-14918
▁unanim	-14919
▁Commons	-14920
lg	-14921
Year	-14922
▁Tas	-14923
▁1866	-14924
▁Regard	-14925
▁Henderson	-14926
▁dispatched	-14927
ema	-14928
rews	-14929
▁modest	-14930
Microsoft	-14931
▁punishment	-14932
gus	-14933
ulk	-14934
CHAR	-14935
▁CON	-14936
▁tabs	-14937
▁Rodrig	-14938
▁amphib	-14939
▁remind	-14940
▁Reading	-14941
leaf	-14942
rington	-14943
▁northeastern	-14944
▁Ky	-14945
▁Isles	-14946
▁mystery	-14947
▁cylinder	-14948
▁presidency	-14949
▁intersections	-14950
▁Pont	-14951
▁migr	-14952
▁affil	-14953
▁betray	-14954
▁sphere	-14955
▁choices	-14956
▁damaging	-14957
zig	-14958
fold	-14959
usty	-14960
▁milk	-14961
▁Contin	-14962
▁Chancell	-14963
▁mechanics	-14964
▁assassination	-14965
▁Bod	-14966
▁Hil	-14967
ierra	-14968
riages	-14969
▁honors	-14970
▁witnessed	-14971
▁collecting	-14972
▁performers	-14973
▁journalists	-14974
▁subtropical	-14975
1-	-14976
ahn	-14977
▁SA	-14978
▁Cut	-14979
▁gran	-14980
▁seal	-14981
▁Ellen	-14982
▁sailors	-14983
bank	-14984
modal	-14985
▁100,	-14986
▁popup	-14987
Trigger	-14988
▁Canyon	-14989
▁Springs	-14990
▁reluctant	-14991
lia	-14992
▁cave	-14993
▁tile	-14994
▁Mills	-14995
▁deals	-14996
▁genes	-14997
▁nearest	-14998
▁Wellington	-14999
0"	-15000
;&	-15001
'))	-15002
▁}}	-15003
ijing	-15004
▁Http	-15005
▁Article	-15006
▁Frances	-15007
Parameter	-15008
▁XI	-15009
▁Num	-15010
▁cro	-15011
▁fle	-15012
mented	-15013
▁annoy	-15014
▁Conserv	-15015
▁pushing	-15016
▁artifact	-15017
▁psychiat	-15018
nut	-15019
hend	-15020
▁SDK	-15021
▁guid	-15022
module	-15023
▁Assist	-15024
▁Choice	-15025
▁Firefox	-15026
▁reserved	-15027
▁ultimate	-15028
▁discussing	-15029
▁archaeological	-15030
▁Tib	-15031
Brien	-15032
▁resize	-15033
▁venture	-15034
olan	-15035
stown	-15036
▁choir	-15037
▁explored	-15038
▁shopping	-15039
Focus	-15040
dbc	-15041
▁UB	-15042
inqu	-15043
Media	-15044
Program	-15045
▁awareness	-15046
opol	-15047
Enter	-15048
aurus	-15049
▁Pine	-15050
▁Punk	-15051
▁nested	-15052
▁belonged	-15053
Option	-15054
hensive	-15055
▁coaching	-15056
▁exploration	-15057
▁Mile	-15058
:100%;	-15059
▁Grove	-15060
▁anybody	-15061
▁poverty	-15062
▁Veronica	-15063
▁Relations	-15064
▁scientist	-15065
game	-15066
mask	-15067
nton	-15068
Module	-15069
jections	-15070
collection	-15071
ivot	-15072
othe	-15073
▁Marl	-15074
Double	-15075
stable	-15076
▁Agric	-15077
▁infer	-15078
▁settle	-15079
▁suffer	-15080
▁Crawford	-15081
pay	-15082
icked	-15083
▁Seas	-15084
▁metals	-15085
▁rocket	-15086
▁disputed	-15087
▁resemble	-15088
▁objectives	-15089
▁**	-15090
Light	-15091
arians	-15092
▁hiding	-15093
▁frigate	-15094
▁Beautiful	-15095
▁Telegraph	-15096
▁executives	-15097
▁1882	-15098
▁Glass	-15099
▁discour	-15100
▁leagues	-15101
▁eighteen	-15102
▁millions	-15103
▁relating	-15104
▁Palestine	-15105
▁Yet	-15106
▁1873	-15107
rapping	-15108
▁Tucker	-15109
▁Fischer	-15110
▁lengthy	-15111
▁opinions	-15112
▁Headquarters	-15113
▁transformation	-15114
Pager	-15115
▁vamp	-15116
▁Devon	-15117
▁Excel	-15118
▁Films	-15119
Drawing	-15120
thening	-15121
▁Contem	-15122
▁incred	-15123
▁Intellig	-15124
▁scrolling	-15125
▁overwhelming	-15126
▁Pas	-15127
REATE	-15128
▁accus	-15129
▁smart	-15130
▁comprised	-15131
▁formations	-15132
zi	-15133
▁jquery	-15134
▁accuracy	-15135
-04	-15136
Btn	-15137
▁Ib	-15138
▁Find	-15139
Reference	-15140
▁acceptance	-15141
pm	-15142
▁1867	-15143
▁Roche	-15144
▁clicking	-15145
▁internationally	-15146
▁Ply	-15147
phant	-15148
▁1871	-15149
▁Beijing	-15150
▁molecular	-15151
EW	-15152
)];	-15153
rod	-15154
omys	-15155
▁Hass	-15156
▁phosph	-15157
▁suited	-15158
▁whales	-15159
▁interactions	-15160
////////////////	-15161
▁Sad	-15162
outing	-15163
▁thumb	-15164
▁Flanders	-15165
▁abundant	-15166
▁surpassed	-15167
asaki	-15168
▁Spen	-15169
▁mbar	-15170
angered	-15171
:50	-15172
▁na	-15173
▁por	-15174
istocr	-15175
▁whale	-15176
▁Truman	-15177
▁carved	-15178
▁Clement	-15179
▁guitars	-15180
▁advocated	-15181
=".	-15182
▁lun	-15183
▁Anat	-15184
▁seeds	-15185
▁intact	-15186
▁tribut	-15187
▁assessment	-15188
PC	-15189
▁320	-15190
▁haz	-15191
olith	-15192
▁Edmont	-15193
Met	-15194
mouse	-15195
dx	-15196
▁unt	-15197
ispatch	-15198
▁averaged	-15199
▁declaring	-15200
▁submerged	-15201
UES	-15202
▁tun	-15203
▁plum	-15204
igrated	-15205
▁Dudley	-15206
▁Newman	-15207
hibernate	-15208
▁percussion	-15209
▁consequences	-15210
Story	-15211
▁Mine	-15212
▁Malay	-15213
▁symmet	-15214
▁Commerc	-15215
▁polygon	-15216
▁partners	-15217
▁complaints	-15218
ör	-15219
nail	-15220
▁Did	-15221
▁turt	-15222
▁reson	-15223
▁Watson	-15224
Children	-15225
▁compromise	-15226
▁1878	-15227
erness	-15228
▁Exped	-15229
▁temples	-15230
▁Him	-15231
Hello	-15232
Customer	-15233
ère	-15234
otto	-15235
▁Led	-15236
▁Wit	-15237
▁Raid	-15238
▁Deputy	-15239
▁theoret	-15240
▁constraint	-15241
▁horsepower	-15242
NT	-15243
ORT	-15244
ogs	-15245
▁git	-15246
[...]
